#version: 0.2
Ġ t
i n
h e
e r
a n
Ġ s
Ġ c
Ġ m
Ġ a
Ġt he
e n
Ġ p
Ġ T
r a
i s
Ġt o
e x
r o
in g
a l
r e
c t
ĠT he
a t
d e
o n
Ġm o
Ġ l
Ġ is
e ct
Ġc an
e d
Ġ f
ra in
Ġ b
Ġp ro
Ġt rain
de l
Ġmo del
i m
o u
s e
ex t
e a
s er
Ġ u
Ġ in
h an
l e
o r
s t
Ġt ext
al l
j ect
m all
Ġm a
Ġpro ject
han g
i t
Ġ A
Ġ ex
an d
Ġs mall
Ġb e
c e
i z
i on
Ġtrain ing
Ġex p
k en
p t
Ġ d
Ġto ken
Ġu ser
a se
e s
o w
t s
Ġ C
Ġ n
Ġ and
Ġs e
im p
Ġd at
l a
o c
p a
r i
r n
r u
s i
u t
Ġ o
Ġ w
Ġ en
Ġt in
Ġs t
Ġc on
Ġc hang
Ġa l
Ġl ea
ou t
Ġin t
Ġma y
Ġdat ase
Ġtin y
Ġchang e
Ġlea rn
e m
m e
Ġ S
Ġ h
Ġ v
Ġ ea
Ġ out
ro m
Ġf i
Ġf rom
hang ing
iz e
ĠC hanging
oc al
si er
Ġdatase t
Ġea sier
Ġout p
G P
U ser
a r
c k
c ou
c ri
d er
g ed
h is
i g
l y
o t
o me
s o
t h
t er
t ion
Ġ I
Ġ g
Ġ re
Ġ on
Ġ imp
Ġ ru
Ġ GP
Ġ User
er im
Ġs ize
Ġs cri
Ġa re
Ġp re
ĠT his
ra ged
at ion
Ġma k
Ġexp erim
Ġn ot
Ġse e
Ġo f
Ġen cou
Ġal so
Ġint o
Ġfi le
Ġoutp ut
Ġru n
ĠUser s
Ġscri pt
Ġexperim en
Ġencou raged
L ocal
b le
d s
e p
f f
f u
g e
g th
h at
n der
t an
u i
v e
Ġ Local
en gth
Ġp at
Ġp la
ra tion
ct u
Ġl ar
Ġl ength
ect ed
Ġf or
Ġtrain ed
Ġu nder
Ġin f
or tan
st and
Ġbe c
iz er
Ġexp ected
Ġtoken s
Ġtoken izer
imp le
pa re
Ġlearn ing
Ġh ow
ter n
Ġimp ortan
ĠGP T
Ġmak es
fu l
Ġpat tern
Ġunder stand
Ġimportan t
D s
a y
a ds
d i
d u
d ing
e w
e st
f y
f ig
g h
g er
i ble
l p
l it
l ow
m pt
o l
o al
o se
p e
p lit
q ui
s s
t t
t im
t ext
t ation
u c
u ration
v i
v er
y le
y st
Ġ k
Ġ he
Ġ de
Ġ ed
Ġ it
Ġ qui
Ġt hat
Ġt est
in d
er en
er at
Ġs plit
Ġs yst
Ġc o
Ġm em
Ġa ff
en erat
ĠT rain
is ible
ro n
ing s
Ġmo re
Ġmo di
Ġl o
Ġl ocal
Ġf a
Ġb ut
Ġpro ce
Ġpro mpt
ou gh
se ful
Ġu seful
or k
it h
ĠA I
Ġbe h
Ġuser s
Ġse tt
ru ctu
Ġw ork
Ġw ith
Ġcon fig
Ġcon text
Ġint en
ĠS ome
ĠS imple
Ġv isible
ck ly
ĠI Ds
Ġg oal
Ġg enerat
Ġon e
Ġpre pare
Ġexperimen ts
Ġexperimen tation
ep s
Ġpla ce
Ġlar ge
Ġinf eren
Ġbec ome
Ġpattern s
du ce
tim es
Ġhe lp
Ġqui ckly
Ġsyst em
Ġmem or
Ġaff ect
ĠTrain er
Ġmodi fy
Ġproce ss
Ġsett ings
ructu re
Ġconfig uration
ĠSome times
Ġinferen ce
D A
M an
P U
S imple
U DA
a b
a i
a k
a p
a u
a ra
a pa
a ge
a vi
b er
b ed
b ser
c he
c re
c it
e ed
e eps
f ect
f or
f it
f low
g n
g u
g pt
g ly
h t
h u
h ow
h ose
i r
i de
i ve
i ding
i ew
i pe
k s
l o
l in
l ig
l ds
m er
m en
m pare
m ber
n t
n al
n st
n ks
o p
o x
o ff
p en
p ect
r y
r an
s for
s pect
t it
u s
u al
u ts
u la
u ri
u mber
v ai
w ay
x ed
Ġ an
Ġ em
Ġ Man
Ġ ide
Ġt ra
Ġt im
Ġt ea
Ġt han
Ġt hose
Ġt ran
he n
he ck
er s
er y
er ful
er fect
an gu
Ġs ig
Ġs low
Ġs how
Ġs lig
Ġc re
Ġc ou
Ġc apa
Ġc hu
Ġc uri
Ġc heck
Ġm en
Ġm uc
Ġa s
Ġa t
Ġa vai
Ġthe n
Ġthe se
Ġp ow
Ġp ara
Ġp ipe
Ġp erfect
ra st
is ts
Ġto ol
ro ve
re ak
ct ion
ĠThe y
at e
at us
de d
de off
on ger
Ġmo st
Ġl ay
Ġl angu
Ġl onger
Ġf ri
Ġf ol
Ġb la
Ġb ui
Ġb ox
Ġb reak
Ġpro duce
Ġtrain s
Ġmodel s
ou s
se ts
ea d
Ġin cre
Ġin spect
st er
st yle
all y
Ġma in
it ing
Ġex ists
Ġbe ing
ce pt
iz ation
Ġexp ose
Ġexp lo
Ġd o
ĠC PU
ĠC UDA
Ġn ew
Ġn eed
Ġn umber
Ġse es
Ġdat a
la ble
oc ab
pa ration
pa ir
si gn
Ġo ver
Ġo bser
Ġw hat
Ġw hen
Ġen vi
Ġen ough
Ġst ar
Ġst yle
Ġst ron
Ġst eps
Ġst ructure
Ġst atus
Ġcon ver
Ġcon cept
Ġal th
Ġal way
Ġdatase ts
Ġlearn s
me ter
ĠS mall
Ġh ap
Ġh iding
Ġv iew
Ġv ery
Ġv ocab
Ġfi xed
Ġoutp uts
tion ally
ĠI t
ĠI nst
Ġre ads
Ġre pe
Ġre duce
Ġre pair
Ġimp rove
ĠGP U
Ġpre sets
Ġpre paration
ation al
Ġmak e
ep er
Ġpla in
ctu al
Ġlar ger
Ġinf rast
Ġbec au
uc ational
Ġk ind
Ġk eeps
Ġde sign
Ġde eper
Ġed iting
Ġed ucational
Ġtest s
Ġsplit s
Ġco de
Ġco mpare
ron men
Ġlo ads
Ġlo op
Ġfa ster
Ġfa ctual
Ġprompt s
Ġbeh ind
Ġbeh avi
Ġwork ing
Ġwork flow
Ġwith out
Ġinten ded
Ġinten tionally
Ġgenerat ed
Ġgenerat es
Ġprepare d
Ġmemor ize
Ġmemor ization
bed ding
che s
cit y
ht ly
lin e
pen s
sfor mer
tit ive
ula ry
Ġem bedding
ĠMan ual
Ġide a
Ġtra deoff
Ġtim e
Ġtea ches
Ġtran sformer
Ġsig nal
Ġslig htly
Ġcre ate
Ġcou nt
Ġcapa city
Ġchu nks
Ġcuri ous
Ġmen u
Ġmuc h
Ġavai lable
Ġpow erful
Ġpara meter
Ġpipe line
Ġlay ers
Ġlangu age
Ġfri ction
Ġfol der
Ġbla ck
Ġbui lds
Ġincre ase
Ġexpose s
Ġexplo re
Ġover fit
Ġobser ve
Ġenvi ronmen
Ġstar t
Ġstron gly
Ġconver ts
Ġalth ough
Ġalway s
Ġhap pens
Ġvocab ulary
ĠInst ead
Ġrepe titive
Ġinfrast ructure
Ġbecau se
Ġdesign ed
Ġbehavi or
Ġtradeoff s
Ġenvironmen t
