#version: 0.2
Ä ±
a r
Ã ¼
a n
e r
Å Ł
i n
Ġ b
Ä± n
e n
i l
i r
Ä Ł
Ġ k
Ã §
l ar
Ġ d
Ġ y
Ġ s
a k
a l
Ã ¶
Ġ v
Ġ o
e l
Ġ g
Ġ t
Ġv e
a y
e k
a s
e t
d a
l er
i k
Ä± r
u n
Ä± l
d e
e m
e s
a m
a t
o n
a ÅŁ
i s
Ġb ir
u l
u r
Ġ B
i y
i m
Ã¼ r
Ġ A
a d
i ÅŁ
Ġo l
Ġ h
Ġ m
Ã¼ n
Ġ 1
Ä± ÅŁ
Ġ Ã§
o l
e d
Ġ K
Ġ M
Ġ il
Ġ T
o r
a z
Ä±n da
l Ä±
e y
Ã¶ n
i t
l e
Ä± m
Ġ S
a p
a h
d an
Ġ i
lar Ä±n
l i
a ÄŁ
in de
l an
' d
Ġd e
Ä °
lar Ä±
Ġ f
i z
Ã¼ z
Ġ1 9
Ġ D
Ä± k
d i
Ġ Ä°
Ã¶ r
Ġ "
d u
Ġ p
a b
Ġ al
in i
as Ä±
in e
y a
u m
Ġ H
t ir
l a
lar ak
Ġ ar
d Ä±
s t
Ã¼ k
Ġ E
Ġ 2
Ġi Ã§
Ġt ar
o ÄŁ
u ÅŁ
a f
d en
Ġ G
e v
Ġo larak
es i
Ġb aÅŁ
Ġ (
t Ä±r
Ġy Ä±l
Ġ C
Ä± s
Ġs on
Ã¼ l
ler i
in in
Ġ ÅŁ
Ġ F
t i
Ã¼r k
o k
o m
Ġy ap
Ġ Ã¶
il er
Ã¼ m
e z
Ġil e
m iÅŁ
Ġ Ã
m a
e ÅŁ
m Ä±ÅŁ
Ġb u
ÄŁ i
el er
ÄŁ Ä±
d Ä±r
Ä±n dan
Ġ n
o p
Ġd a
Ġ Y
is t
l ik
Ġ P
e Ã§
Ä±n Ä±
l am
Ġ et
u t
Ġ r
Ġb il
Ġg Ã¶r
m ak
ĠT Ã¼rk
u k
iy e
a Ã§
Ġ an
c e
t Ä±
Ġg el
u s
ĠiÃ§ in
d ir
Ġ ed
Ġ O
a v
Ġk ar
Ġol an
ak i
0 0
ĠB u
Ä±n a
Ġk ul
Ġy er
Ġo r
Ġk ur
Ġ Ã¶n
ad Ä±
i b
Ã¼ y
Ġ is
a c
Ġol du
Ġ ay
Ġ z
i h
Ġ u
ĠA n
ek t
ay Ä±
l en
Ã¼ ÅŁ
is i
il m
Ġ en
u p
ÄŁ u
Ġv er
t ur
lÄ± k
Ġson r
Ġkul lan
o s
Ġ in
c a
ay a
Ġd Ã¶n
ek i
e b
an Ä±
ler in
Ġ L
Ġb ul
Ġtar af
mÄ±ÅŁ tÄ±r
Ã¶ l
t e
l u
as Ä±nda
y la
Ġt op
Ġ R
m asÄ±
t a
Ä±n Ä±n
Ġs Ã¼r
Ġ ik
miÅŁ tir
i p
Ä± z
Ġ c
i ÄŁ
t ad
k en
Ġde ÄŁ
uÅŁ tur
le ÅŁ
ib i
Ġ Ã¼z
Ġg er
l et
ĠyÄ±l Ä±nda
ah a
il ir
ĠÃ¼z er
Ġsonr a
Ġk al
Ġy Ã¶n
Ġg Ã¶
o j
Ġd oÄŁ
s el
Ġk on
Ġil k
ĠTÃ¼rk iye
Ġtaraf Ä±ndan
Ġg en
Ġbul un
m an
e c
il en
Ġ N
Ġy az
Ä±l an
un u
Ġ ad
Ġis e
iy le
l em
Ġg ibi
Ġtar ih
n in
' t
tad Ä±r
en i
Ã¼y Ã¼k
d aki
Ġ2 0
un da
ĠÃ ĩ
ĠÃ§ Ä±k
Ġol m
o y
Ã ¢
y on
ĠÃ¶ z
l aÅŁ
Ġ iÅŁ
i c
Ġ el
Ġg eÃ§
Ġk en
iy et
r o
Å ŀ
ed ir
Ã¼ Ã§
ol oj
ĠdÃ¶n em
ay an
ak Ä±m
ar t
Ġ aÃ§
Ġd aha
c ak
Ġb el
u z
Ġy aÅŁ
Ġbil im
e de
Ġ Åŀ
an s
Ġb Ã¼yÃ¼k
Ġg Ã¼n
e f
ar k
Ġk ad
Ġo y
ĠÃ§ ok
b ol
al Ä±ÅŁ
d eki
mak tadÄ±r
k i
Ã¼ t
ekt edir
er i
iÅŁ tir
Ġs aÄŁ
n Ä±n
in den
il di
il i
Ġ V
al Ä±
v r
t an
ĠÃ§ alÄ±ÅŁ
Ġ 3
o z
Ġal an
Ġy ar
e ÄŁ
er k
am an
ed en
Ġkar ÅŁ
a da
ĠÃ ĸ
c i
ey e
lar a
m et
o t
m e
Ã¼ c
Ġs eÃ§
Ġb Ã¶l
Ġ at
lar Ä±nda
Ġy Ã¼z
Ġt ek
ĠA r
lar da
Ġt an
iy on
Ġ es
larÄ±n Ä±
ist em
c Ä±
u b
ar ak
Ġb aÄŁ
Ã§ e
un un
Ä±l dÄ±
Ġy ay
Ġ2 00
d er
Ġk at
Ä±s Ä±
Ġu y
c u
Ġv ar
ĠE r
e h
s an
Ġs ah
ĠB ir
g i
Ä±l Ä±
ĠÃ¶z el
Ġy ak
aÄŁ Ä±
ar Ä±
ĠA y
Ġt akÄ±m
Ġs Ä±r
l adÄ±
m as
r Ä±
Ã¶ y
Ġ ek
ĠÃ¶ l
an lÄ±
Ġz aman
ar a
as k
Ġar asÄ±nda
Ġor t
Ġo n
Ġkur ul
Ġkad ar
Ġk ay
Ġt em
ĠÅŁ ek
larÄ±n Ä±n
ev r
Ã¼ s
am p
Ã ®
az Ä±
Ġde v
h ur
ler ini
t Ã¼r
Ġ U
g r
n Ä±
er ek
a de
li ÄŁi
st er
iÄŁ er
Ġs ay
et im
um hur
ĠgÃ¶r e
ĠÃ¶n em
Ġik i
Ġh al
en g
ĠM u
i v
l Ã¼
Ġd Ã¼z
e p
ĠgÃ¶ ster
1 9
Ã¶ z
Ġh ar
Ġbel ir
ed i
Ġ Ã¼r
Ġs ayÄ±
Ġet k
el i
st an
er s
ĠH an
i Ã§
Ġu z
Ġy eni
Ġal t
b ul
Ġs istem
Ġh er
p or
aÅŁ k
ÄŁ r
larÄ±n a
t r
m ektedir
Ġ I
Ġve ya
Ä±n daki
ĠÄ° s
en in
Ġd Ã¼ÅŁ
ol u
av aÅŁ
Ġoldu ÄŁu
) ,
d Ã¼
Ġ Z
es inde
Ġk ap
Ġk az
Ġbir lik
at ik
Ġf ark
ur um
Ġp ro
i f
ĠbaÅŁ k
stan bul
m ek
Ġgen el
ik t
ĠÄ° stanbul
amp iyon
un a
Ġk ab
at Ä±
eÅŁ it
ĠÄ° n
Ġ20 1
Ġ 4
as yon
Ġin san
Ġd iÄŁer
ĠÄ° l
Ġd en
Ġg ir
Ã¼n ya
Ġ ul
Ġkaz an
am a
d Ã¼r
Ġm il
Ġol uÅŁ
Ã§ ek
Ġson u
Ġh ak
lar dan
Ġ19 9
" ,
Ġol uÅŁtur
Ġsah ip
Ġy an
em al
Ġb oy
Ġp ar
Ġd er
on om
ĠG Ã¼n
ĠÃ¶nem li
er b
im i
Ġt am
Ġ J
Ġ ak
Ä± y
Ġd il
ĠA l
m aya
y Ä±l
ler inin
b ir
Ġ19 8
dÄ± ÄŁÄ±
eler i
ÄŁ unu
ler e
up a
es ine
Ġ Ã¶r
Ġbirlik te
Ġk iÅŁ
Ġ1 8
u y
t er
Ġ a
ĠgÃ¶r ev
Ġ Ã¼l
m esi
il miÅŁtir
h an
in deki
erk ez
ĠO r
Ġuy g
u v
Ġd Ä±ÅŁ
Ġet ti
ut bol
ab ilir
ĠyÃ¼z yÄ±l
e or
ler de
Ġ l
Ã§ ok
ĠiÃ§ er
ĠÃ ľ
Ä±ÅŁ tÄ±r
Ġgel iÅŁ
ĠbÃ¶l g
Ġt aÅŁ
es t
ey en
Ġtop l
o d
r i
m en
n e
Ġh ay
Ġkullan Ä±l
ĠK emal
af a
an Ä±n
aÅŁ tÄ±r
ĠA vr
Ã¼ st
Ä±l Ä±k
at em
ĠdeÄŁ iÅŁ
Ġ Ã¼Ã§
Ġt Ã¼r
Ä±s Ä±r
y e
Ġger Ã§ek
r e
st afa
Ġg r
et ir
ĠA t
or du
in ci
Ġh em
ĠG en
ĠÃ§ eÅŁit
leÅŁ tir
Ġtarih inde
oloj i
rÄ± ca
Ġ 5
Ġil g
ĠÃ¶zel lik
Ġn eden
Ã¼ p
ĠM Ä±sÄ±r
ĠMu stafa
es ini
Ġtan Ä±m
ey i
g an
Ġk Ä±s
Ġgel en
ĠÃ§ ek
i d
as ar
li ÄŁ
ĠO s
ĠÅŁek il
larÄ±n dan
Ġkab ul
Ã¼ b
Ġy Ã¼k
ac ak
ĠdÃ¼z en
ar et
Ä±l Ä±m
Ġger ek
Ġbir Ã§ok
l uk
ÄŁ Ä±nÄ±
Ġy ol
iy as
oÄŁ u
Ġken d
n de
il ik
Ġg etir
eng iz
e ce
Ġay r
l at
t ik
Ġyap Ä±lan
ĠK ar
Ġ19 7
ĠdoÄŁ r
Ġt Ã¼m
Ġay nÄ±
n un
s a
Ã§ a
al Ä±k
r ak
ler inde
Ġ19 2
ĠAvr upa
ĠOs man
Ġ W
Ġo k
or m
s al
Ġil iÅŁ
ĠÃ¼zer e
ĠC umhur
o f
ĠE k
ĠC engiz
Ġort aya
iler i
Ġ %
Ġs an
Ġfark lÄ±
ĠÃ¼l k
ĠkarÅŁ Ä±
Ġ ist
ĠB eÅŁ
tÄ± ÄŁÄ±
n da
Ġ am
Ġd urum
ĠÅŁ ampiyon
Ġ19 6
uk uk
r ar
Ã¼m Ã¼z
c el
ik a
ĠT em
Ġbil g
Ġb azÄ±
ad olu
Ġf ilm
ĠaÃ§ Ä±k
Ġy a
Ġt eor
ĠF en
ĠAn adolu
ĠseÃ§ im
y al
Ġy et
lam a
Ġ adÄ±
Ġol mak
ĠÃ¼zer ine
di ÄŁi
Ġkay n
ler ine
ĠiÃ§ inde
atem atik
v an
b aÅŁk
ĠM an
ĠE n
Ġolm uÅŁtur
e g
al an
ad an
ikt aÅŁ
erb ah
ĠiliÅŁ k
Ġt ut
Ġr es
Ġ 6
Ä± t
ĠOsman lÄ±
k ara
Ġ ev
Ã¼ f
ĠÃ§Ä±k ar
Ġs Ã¶z
Ã¼n Ã¼
ĠÃ§ evr
Ġyak laÅŁ
ĠBeÅŁ iktaÅŁ
Ġ as
du ÄŁu
Ġtem el
Ġk ez
Ġbir i
p ar
Ġ it
Ġar aÅŁtÄ±r
ĠÃ§eÅŁit li
Ġgel iÅŁtir
ĠAn kara
ĠFen erbah
il miÅŁ
lan an
m Ã¼ÅŁ
r af
anlÄ± ÄŁÄ±
Ġ1 2
Ġan lam
Ġ -
at Ã¼rk
Ã¼n y
o b
Ã »
Ġm erkez
ĠÃ¶n ce
ĠÃ§alÄ±ÅŁ ma
m er
n a
Ġ19 3
s ek
lar la
Ġs or
lÄ± ÄŁÄ±
Ġbil in
Ġk it
ler den
ĠÅŁekil de
t em
Ä±l mÄ±ÅŁtÄ±r
Ġ Ã¼st
at or
us u
o g
Ġ im
Ġ eÄŁ
es inin
d ur
Ġf utbol
Ġan cak
lan dÄ±r
ĠÃ¶ ÄŁr
Ġs ez
Ä±l Ä±r
Ġuyg ul
Ġ li
Ġ19 5
Ġoy n
s e
ek et
Ġoldu ÄŁunu
Ġk om
Ġh Ã¼k
ĠG al
r an
Ġ ask
i ir
m uÅŁtur
Ġb en
ĠK r
ĠbaÅŁ ladÄ±
Ġdev let
r ans
Ġ az
ĠD ev
Ġken di
lerin den
Ä±n Ä±r
ĠA k
ĠgÃ¶ z
en t
lar dÄ±r
ĠAn cak
ĠAt atÃ¼rk
ĠFenerbah Ã§e
iz ik
ĠÃ¼zer inde
Ġk Ã¶
ĠyaÅŁ am
par ator
in c
eÄŁ in
eb ilir
p r
u Ã§
as t
un an
ĠyÃ¶n etim
Ġes ki
Ġul aÅŁ
u h
Ã¼n de
Ġtopl um
Ġ 7
ĠK ur
iz m
g il
Ġvar dÄ±r
Ġsez on
a g
s Ä±z
l ay
Ä±m Ä±
Ġek onom
d Ä±ndan
Ġs por
Ġh Ã¼c
Ġ19 1
ec ek
d ar
Ġed en
ĠDev let
s ik
ĠD Ã¼nya
00 0
gr am
ĠdoÄŁr u
ul u
Ã ĸ
o c
as a
as Ä±na
ĠM il
uz ey
ĠGÃ¼n ey
c Ã¼
m eye
ÄŁ ini
iy i
ĠT ar
ĠS avaÅŁ
Ġi z
Ã¼l tÃ¼r
lu ÄŁu
g Ã¼n
Ġb in
Ġal Ä±n
iler in
ilm esi
Ġkayn ak
Ġ eÅŁ
Ġ Ã¼y
Ġs iyas
ĠK on
Ġf az
Ġhar eket
un ca
Ġyap Ä±
Ġdev am
ĠB ey
l ayan
Ġor gan
ĠAy rÄ±ca
o v
Ã¼Ã§ Ã¼k
ĠÃĸ z
al iyet
un dan
Ġar k
Ġ aÅŁ
Ġk r
Ġd ol
oloj ik
Ġb it
Ġtam am
ac Ä±
Ä±l masÄ±
Ġyay Ä±m
o ÅŁ
t en
is inde
or um
ĠE s
ĠyÃ¶n tem
l ey
l Ã¼k
Ġkar ar
Ġ aÄŁ
el ik
Ġi f
len dir
Ġin cel
ĠyÃ¶n et
Ġs Ä±nÄ±r
al k
Ġm atematik
ĠdÃ¼ÅŁ Ã¼n
t u
Ġar t
ĠgÃ¶r Ã¼l
Ã» met
Ġar dÄ±ndan
lam Ä±ÅŁtÄ±r
Ġ Ã¼n
Ġk es
Ġkon u
Ġm et
n eÄŁin
ar Ä±ÅŁ
il im
oÄŁ raf
ist an
Ġ20 2
Ġhal k
Ġbulun an
ec l
ĠgeÃ§ ir
Ġoy un
Ġuz un
ĠMan Ã§
ÄŁ Ã¼
Ġs Ã¶y
Ġm Ã¼z
Ã¼t Ã¼n
Ġm ad
Ġ1 0
Ġf a
ĠL i
Ġboy unca
Ġt ah
Ġ er
Ġb iÃ§
Ä±l mÄ±ÅŁ
lan dÄ±
eler in
os yal
Ġtek n
mas Ä±na
Ġask er
t ar
t Ã¼
ler le
aÅŁ a
Ġm aÃ§
Ġd al
Ġs avaÅŁ
es el
Ġz or
ĠyÃ¼k sek
Ġ ede
Ġd Ã¼ny
at asar
Ġilg ili
atasar ay
s il
Ġ 9
Ġo t
as Ä±ndaki
ĠaraÅŁtÄ±r ma
Ġk im
Ġk ol
ay ar
ĠgÃ¶r Ã¼ÅŁ
eh ir
ĠManÃ§ o
d oÄŁ
Ġad lÄ±
ĠÃ¼r et
m uÅŁ
Ġh ukuk
Ġyaz Ä±lÄ±m
Ġpro gram
m i
Ġk an
ĠÅŁ iir
ĠF rans
lik le
Ġd in
Ġs Ä±
Ã¼n e
ĠY unan
up asÄ±
ĠtakÄ±m Ä±
Ġb ask
Ġp r
adÄ± ÄŁÄ±
Ġc umhur
ĠdeÄŁ il
ĠZ az
Ġit ib
ĠGal atasaray
Ġfaz la
y i
ĠÄ° t
iv ers
ĠÄ°n gil
en d
) .
as Ä±nÄ±
lÄ± ÄŁ
Ġtar Ä±m
Ġes er
Ġ 8
ĠbiÃ§ im
ivers it
s i
ab er
Ġn Ã¼f
Ġis im
Ġhak k
Ġg Ã¼Ã§
ĠF er
ĠCumhur iyet
an t
Ġs eb
az Ä±r
Ġ19 4
ti f
ĠbaÄŁ lÄ±
Ġfa aliyet
Ã¶r t
Ġb as
Ġd iz
Ġ1 5
Ġal dÄ±
ĠdeÄŁ er
ĠdeÄŁ iÅŁtir
m az
Ã§ i
Ġs al
es iyle
Ġtop rak
ĠR om
ĠdoÄŁ al
ĠgÃ¼n Ã¼mÃ¼z
Ġ em
Ä± p
Ä± cÄ±
iy at
mas Ä±nÄ±
ilm ektedir
ĠÃ¶ÄŁr en
Ġk Ã¼Ã§Ã¼k
Ġd Ã¼nya
ĠA mer
Ġil Ã§
ab il
len en
ĠdÃ¶nem inde
o st
Ã¶y le
Ġif ade
ĠA s
ĠÄ° m
ĠP art
Ġs er
ĠK ul
ĠbaÅŁ ar
ĠdeÄŁiÅŁ ik
k Ã¼
Ġgr up
ĠeÄŁ it
Ġs at
Ã¼m Ã¼
Ġel de
Ã¼ v
ĠB unun
Ġh Ã¢
ĠP ar
Ġtem sil
Ã¼s Ã¼
l in
v et
et ik
Ġed ilen
g e
ĠK upasÄ±
ĠÃĩ in
ĠTar ih
Ġk Ã¼m
Ã¼n Ã¼n
Ġ1 6
Ġken t
d Ã¼l
Ġk av
ol it
ĠiÅŁ lem
ĠSavaÅŁ Ä±
p an
ak at
al i
em e
ti ÄŁi
ĠP aÅŁa
ĠGen el
g Ã¼r
el im
ĠD oÄŁu
lam ak
ĠÄ°l k
l im
Ġg Ã¶n
Ġbir bir
ĠE y
Ġyak Ä±n
doÄŁ an
y an
ay Ä±s
ab a
ĠH ar
oÄŁ un
k et
l Ã¼l
r a
an an
an lÄ±k
Ġd ayan
is inin
Ġol masÄ±
Ġor du
ĠÃ¶n c
Ġbulun maktadÄ±r
ĠsÄ±r asÄ±nda
g u
ĠdÃ¶nem de
ĠbaÅŁk a
Ġben z
Ġt er
as Ä±m
ĠEr doÄŁan
ĠA li
Ä±nÄ± f
ĠÄ°m parator
c h
Ġk Ã¼ltÃ¼r
el s
as Ä±nÄ±n
is ini
Ġyeni den
Ġul us
Ġb Ã¼tÃ¼n
Ġol ay
Ġ1 1
Ġf izik
Ä±z ca
iÄŁ in
Ġel e
n i
en iz
et bol
ĠsÃ¼r e
Ġgen iÅŁ
ĠEk im
Ġy en
Ġs u
Ġh at
Ġcumhur baÅŁk
2 0
r am
s iz
is ine
Ġm od
mÃ¼ÅŁ tÃ¼r
Ġorgan iz
u x
Ã¼ ler
Ġt ic
ĠÃ§ aÄŁ
av un
ĠÃ¶l Ã§
Ġy ok
Ġm ev
Ġtop lam
Ġyay Ä±n
g Ä±n
n ek
s iyon
Ġs Ä±nÄ±f
Ġh Ä±z
ĠM art
ĠM ayÄ±s
ade ce
ĠÃľ n
ĠhÃ¼k Ã»met
g el
Ġ evr
Ã¶ k
ler iyle
Ġed er
Ġyer ine
ĠsÄ±r a
ĠÅŁek l
els ef
ĠB aÅŁk
Ġyap tÄ±ÄŁÄ±
Ġhay van
ĠH az
ĠdÃ¶n Ã¼ÅŁ
Ġb un
Ġm Ã¼
Ġik inci
Ġsan at
ĠEy lÃ¼l
m eler
Ġd uy
ĠB Ã¶l
ĠY Ä±l
ekt r
Ġetk il
of ya
ĠhÃ¼c r
Ġede b
ar asÄ±
an Ä±ÅŁ
Ġb ak
Ġy anÄ±
es inden
ĠA h
Ã¼n den
Ġf orm
Ġger i
ĠsaÄŁ lÄ±k
am ak
ĠK om
Ġf elsef
oz a
b ak
d Ä±m
Ġh azÄ±r
Ġin ÅŁ
Ġbilim sel
l edi
Ġd em
Ä±r ak
larÄ± yla
oÄŁ ol
Ġkullan Ä±lan
Ġalt Ä±nda
N A
Ġb iy
Ġd est
al e
ĠK asÄ±m
ĠS on
Ġde pr
Ġar asÄ±ndaki
ĠV an
Ġzaman da
ĠOr ta
ĠÃ¶zellik le
ĠgÃ¶n der
o der
Ġs osyal
le v
Ġed ildi
Ġsonu c
Ġy Ã¼r
Ġs adece
lan mÄ±ÅŁtÄ±r
lu ÄŁ
ic i
ĠEr z
Ġon un
ĠdÄ±ÅŁ Ä±nda
d in
ler dir
iy or
Ġol up
Ġb Ä±rak
Ġk or
Ġg it
ul a
ĠM oÄŁol
Ä±s Ä±nda
ĠR us
Ġkon uÅŁ
oder n
a at
Ġ iyi
Ġt ur
ĠC h
Ġan laÅŁ
us unda
Ġyer leÅŁ
ĠÃĸ r
Ġdest ek
in ux
as ofya
is ayar
Ġ1 7
Ä±ÅŁ Ä±
Ġde vr
ĠÅŀ ampiyon
Ġsistem i
m ed
ĠS por
ĠyÄ±l larÄ±
Ġoldu k
ĠÅŀ ub
ĠkarÅŁ Ä±l
Ġtek rar
Ġhar f
ĠKr al
Ġb ur
Ġm ez
ĠO cak
ĠgÃ¼n ey
oc uk
g en
l eyen
Ġy as
Ġt es
Ġt ab
ul uk
ĠB aÅŁ
ad el
ĠD er
rar i
ĠLi gi
ar i
Ġk Ä±y
Ġk uzey
Ġs oy
Ġ1 3
Ġan a
Ġbelir t
ĠgerÃ§ek leÅŁtir
Ġkit ap
l Ã®
ÄŁ Ä±nda
el en
iy ordu
iz met
Ġal Ä±r
oÄŁ lu
Ġver di
Ġa il
. "
i ÄŁi
ir an
Ġ1 4
ĠM Ãĸ
ĠS an
ĠD aha
ĠÄ° k
ar en
en k
ĠÃ§ iz
Ä±k larÄ±
st os
Ġn e
Ġn ok
ĠsÃ¼r dÃ¼r
ĠAy asofya
Ġkap s
Ġsahip tir
ĠnÃ¼f us
Ġdepr em
l ak
Ġb er
Ġ19 0
ĠD em
Ġp art
Ġyap tÄ±
Ġed il
Ġkur al
ĠPart isi
v er
Ġb ey
lar arasÄ±
de ÅŁ
ĠA d
Ġp sik
ĠiÅŁ let
Ã¼c adel
ĠbÃ¶l Ã¼m
Ġmil let
Ġmil yon
Ġsonu cu
ĠgerÃ§ek leÅŁ
Ġneden iyle
ĠFer rari
m uz
Ġs es
ĠT an
ah k
dan a
ĠbaÅŁ ken
lam Ä±ÅŁ
Ġed ilir
ÄŁu stos
Ġkal an
ĠÃ¶l Ã¼m
ĠyaklaÅŁ Ä±k
k Ä±
n et
Ġd ah
Ġs Ä±k
ol ek
ok r
iler e
ĠÄ°s pan
ĠeÄŁit im
ĠÃľn iversit
d et
g Ä±
m em
ĠB arÄ±ÅŁ
ĠA ÄŁustos
Ġp olit
Ġr aÄŁ
Ġgel di
Ä±lÄ± ÄŁÄ±
ĠkiÅŁ i
ĠkÄ±s m
ĠTem uÃ§
ĠÄ°ngil iz
ĠTemuÃ§ in
t on
in g
ir ket
al n
ĠB el
Ġm ey
Ä±ÅŁ ma
Ġi h
Ġn es
Ġad landÄ±r
ĠÃ¼r etim
ĠoluÅŁ an
Ġa it
ĠyÃ¼zyÄ±l da
ĠAmer ika
ĠHaz iran
a lar
h i
ĠB ak
uv vet
Ġh iÃ§
ĠS el
l as
Ġk m
Ġd aÄŁ
Ġs in
Ġo ÄŁ
Ġh izmet
ol og
ed iye
ey a
ĠsayÄ± lar
Ġsonu Ã§
ĠCumhur baÅŁk
ĠTem muz
t ay
Ġ '
Ġ e
ul an
Ġi d
Ġyar dÄ±m
Ġhay at
Ġsonuc unda
" )
ar p
Ġd ik
ĠB ur
Ġm oza
Ġp op
Ġda vr
ĠsÃ¼r eÃ§
Ä±ldÄ± ÄŁÄ±
Ġsiyas i
Ġoyun cu
ĠraÄŁ men
k aÃ§
v ek
Ġs un
Ġm ak
ĠK an
ĠH er
Ġyap Ä±l
Ġet miÅŁtir
Ġbulun ur
Ġtarih i
ĠÃ§Ä±k an
Ġpar Ã§
Ã¼v en
Ġber aber
f a
ar d
Ġk elim
Ġs ev
Ġg az
lan Ä±r
Ġgel ir
ĠBir leÅŁ
ĠMu h
ĠÃ¶r nek
Ġitib aren
r et
Ġd Ã¶rt
Ġol ur
Ġm uh
Ġay rÄ±
Ġay rÄ±ca
Ġam acÄ±
ĠRom a
ĠÅŁekl inde
b er
m ay
Ġv ur
ab asÄ±
ĠY eni
ac a
Ġkurul an
ĠÃ¼r Ã¼n
ĠkÄ±s a
Ġsezon unda
ĠEs ki
ĠaÄŁ Ä±r
Ġmod el
ĠÅŀub at
1 8
Ġ( "
ĠN is
Ġolm ayan
ĠbaÄŁ Ä±m
Ġyay gÄ±n
ĠU y
Ġgir iÅŁ
Ã§ Ä±
ek li
ĠF ir
Ġkul Ã¼p
m ekt
m ayÄ±
y Ä±
in d
il iÄŁ
Ġk oy
Ġy aln
al et
Ġg i
ĠB un
ĠB Ã¼yÃ¼k
Ã¼n cÃ¼
ĠS Ã¼r
Ġkad Ä±n
Ġgenel likle
Ġkom ut
c ut
h e
s u
er j
ĠB atÄ±
Ġp ek
ti v
iler ini
eler de
Ġc oÄŁraf
Ġgr ub
Ġmerkez i
g Ã¼t
m ir
Ġ ada
am Ä±ÅŁ
Ġp lan
ĠC ez
Ä±s Ä±ndan
Ġyap an
Ġkur um
Ġu ÄŁr
lem e
ĠÃĩ aÄŁ
Ġkurul uÅŁ
Ġbilg isayar
Ġbilin en
l us
ak k
ĠD Ã¶n
ĠD oÄŁ
Ġbulun duÄŁu
Ġyaz Ä±
ĠAr alÄ±k
ĠhÃ¢ l
Ġid di
t in
ar lar
Ġb eÅŁ
Ġk Ä±r
Ġm al
Ġark e
ĠÃĸr neÄŁin
Ġdah il
ĠNis an
k er
u d
Ġb es
Ġf in
ĠAy nÄ±
ĠI I
Ġli g
in ce
et r
Ġm Ã¼cadel
Ġar aÃ§
ĠiÃ§er isinde
Ã¶yle ce
ĠÄ°mparator luÄŁu
Ġtic aret
k e
o w
y um
Ġ un
ĠB ilim
Ġil er
ĠS iv
ĠG Ã¶l
Ġyar Ä±ÅŁ
Ġam aÃ§
Ġmev cut
c Ä±lÄ±k
o x
ik leri
Ġbir kaÃ§
ĠM ecl
ĠF utbol
Ġt ak
ĠT op
ĠD NA
ĠÅŁ ark
ĠÅŁ irket
eÅŁ tir
Ġr om
Ġed ilmiÅŁtir
Ġen erj
ĠL inux
han gi
Ġhem en
Ġkav ram
' s
m Ã®
s er
Ġ erk
Ġk il
Ġk aÃ§
Ġk uvvet
as al
iy an
ĠÃ§ Ã¶z
Ġtar t
len di
