{
  "version": "1.0",
  "truncation": null,
  "padding": null,
  "added_tokens": [
    {
      "id": 885,
      "content": "<|endoftext|>",
      "single_word": false,
      "lstrip": false,
      "rstrip": false,
      "normalized": true,
      "special": true
    }
  ],
  "normalizer": null,
  "pre_tokenizer": {
    "type": "ByteLevel",
    "add_prefix_space": false,
    "trim_offsets": true,
    "use_regex": true
  },
  "post_processor": {
    "type": "ByteLevel",
    "add_prefix_space": true,
    "trim_offsets": false,
    "use_regex": true
  },
  "decoder": {
    "type": "ByteLevel",
    "add_prefix_space": true,
    "trim_offsets": true,
    "use_regex": true
  },
  "model": {
    "type": "BPE",
    "dropout": null,
    "unk_token": null,
    "continuing_subword_prefix": "",
    "end_of_word_suffix": "",
    "fuse_unk": false,
    "byte_fallback": false,
    "ignore_merges": false,
    "vocab": {
      "<s>": 0,
      "<pad>": 1,
      "</s>": 2,
      "<unk>": 3,
      "<mask>": 4,
      "!": 5,
      "\"": 6,
      "#": 7,
      "$": 8,
      "%": 9,
      "&": 10,
      "'": 11,
      "(": 12,
      ")": 13,
      "*": 14,
      "+": 15,
      ",": 16,
      "-": 17,
      ".": 18,
      "/": 19,
      "0": 20,
      "1": 21,
      "2": 22,
      "3": 23,
      "4": 24,
      "5": 25,
      "6": 26,
      "7": 27,
      "8": 28,
      "9": 29,
      ":": 30,
      ";": 31,
      "<": 32,
      "=": 33,
      ">": 34,
      "?": 35,
      "@": 36,
      "A": 37,
      "B": 38,
      "C": 39,
      "D": 40,
      "E": 41,
      "F": 42,
      "G": 43,
      "H": 44,
      "I": 45,
      "J": 46,
      "K": 47,
      "L": 48,
      "M": 49,
      "N": 50,
      "O": 51,
      "P": 52,
      "Q": 53,
      "R": 54,
      "S": 55,
      "T": 56,
      "U": 57,
      "V": 58,
      "W": 59,
      "X": 60,
      "Y": 61,
      "Z": 62,
      "[": 63,
      "\\": 64,
      "]": 65,
      "^": 66,
      "_": 67,
      "`": 68,
      "a": 69,
      "b": 70,
      "c": 71,
      "d": 72,
      "e": 73,
      "f": 74,
      "g": 75,
      "h": 76,
      "i": 77,
      "j": 78,
      "k": 79,
      "l": 80,
      "m": 81,
      "n": 82,
      "o": 83,
      "p": 84,
      "q": 85,
      "r": 86,
      "s": 87,
      "t": 88,
      "u": 89,
      "v": 90,
      "w": 91,
      "x": 92,
      "y": 93,
      "z": 94,
      "{": 95,
      "|": 96,
      "}": 97,
      "~": 98,
      "¡": 99,
      "¢": 100,
      "£": 101,
      "¤": 102,
      "¥": 103,
      "¦": 104,
      "§": 105,
      "¨": 106,
      "©": 107,
      "ª": 108,
      "«": 109,
      "¬": 110,
      "®": 111,
      "¯": 112,
      "°": 113,
      "±": 114,
      "²": 115,
      "³": 116,
      "´": 117,
      "µ": 118,
      "¶": 119,
      "·": 120,
      "¸": 121,
      "¹": 122,
      "º": 123,
      "»": 124,
      "¼": 125,
      "½": 126,
      "¾": 127,
      "¿": 128,
      "À": 129,
      "Á": 130,
      "Â": 131,
      "Ã": 132,
      "Ä": 133,
      "Å": 134,
      "Æ": 135,
      "Ç": 136,
      "È": 137,
      "É": 138,
      "Ê": 139,
      "Ë": 140,
      "Ì": 141,
      "Í": 142,
      "Î": 143,
      "Ï": 144,
      "Ð": 145,
      "Ñ": 146,
      "Ò": 147,
      "Ó": 148,
      "Ô": 149,
      "Õ": 150,
      "Ö": 151,
      "×": 152,
      "Ø": 153,
      "Ù": 154,
      "Ú": 155,
      "Û": 156,
      "Ü": 157,
      "Ý": 158,
      "Þ": 159,
      "ß": 160,
      "à": 161,
      "á": 162,
      "â": 163,
      "ã": 164,
      "ä": 165,
      "å": 166,
      "æ": 167,
      "ç": 168,
      "è": 169,
      "é": 170,
      "ê": 171,
      "ë": 172,
      "ì": 173,
      "í": 174,
      "î": 175,
      "ï": 176,
      "ð": 177,
      "ñ": 178,
      "ò": 179,
      "ó": 180,
      "ô": 181,
      "õ": 182,
      "ö": 183,
      "÷": 184,
      "ø": 185,
      "ù": 186,
      "ú": 187,
      "û": 188,
      "ü": 189,
      "ý": 190,
      "þ": 191,
      "ÿ": 192,
      "Ā": 193,
      "ā": 194,
      "Ă": 195,
      "ă": 196,
      "Ą": 197,
      "ą": 198,
      "Ć": 199,
      "ć": 200,
      "Ĉ": 201,
      "ĉ": 202,
      "Ċ": 203,
      "ċ": 204,
      "Č": 205,
      "č": 206,
      "Ď": 207,
      "ď": 208,
      "Đ": 209,
      "đ": 210,
      "Ē": 211,
      "ē": 212,
      "Ĕ": 213,
      "ĕ": 214,
      "Ė": 215,
      "ė": 216,
      "Ę": 217,
      "ę": 218,
      "Ě": 219,
      "ě": 220,
      "Ĝ": 221,
      "ĝ": 222,
      "Ğ": 223,
      "ğ": 224,
      "Ġ": 225,
      "ġ": 226,
      "Ģ": 227,
      "ģ": 228,
      "Ĥ": 229,
      "ĥ": 230,
      "Ħ": 231,
      "ħ": 232,
      "Ĩ": 233,
      "ĩ": 234,
      "Ī": 235,
      "ī": 236,
      "Ĭ": 237,
      "ĭ": 238,
      "Į": 239,
      "į": 240,
      "İ": 241,
      "ı": 242,
      "Ĳ": 243,
      "ĳ": 244,
      "Ĵ": 245,
      "ĵ": 246,
      "Ķ": 247,
      "ķ": 248,
      "ĸ": 249,
      "Ĺ": 250,
      "ĺ": 251,
      "Ļ": 252,
      "ļ": 253,
      "Ľ": 254,
      "ľ": 255,
      "Ŀ": 256,
      "ŀ": 257,
      "Ł": 258,
      "ł": 259,
      "Ń": 260,
      "Ġt": 261,
      "in": 262,
      "he": 263,
      "er": 264,
      "an": 265,
      "Ġs": 266,
      "Ġc": 267,
      "Ġm": 268,
      "Ġa": 269,
      "Ġthe": 270,
      "en": 271,
      "Ġp": 272,
      "ĠT": 273,
      "ra": 274,
      "is": 275,
      "Ġto": 276,
      "ex": 277,
      "ro": 278,
      "ing": 279,
      "al": 280,
      "re": 281,
      "ct": 282,
      "ĠThe": 283,
      "at": 284,
      "de": 285,
      "on": 286,
      "Ġmo": 287,
      "Ġl": 288,
      "Ġis": 289,
      "ect": 290,
      "Ġcan": 291,
      "ed": 292,
      "Ġf": 293,
      "rain": 294,
      "Ġb": 295,
      "Ġpro": 296,
      "Ġtrain": 297,
      "del": 298,
      "Ġmodel": 299,
      "im": 300,
      "ou": 301,
      "se": 302,
      "ext": 303,
      "ea": 304,
      "ser": 305,
      "Ġu": 306,
      "Ġin": 307,
      "han": 308,
      "le": 309,
      "or": 310,
      "st": 311,
      "Ġtext": 312,
      "all": 313,
      "ject": 314,
      "mall": 315,
      "Ġma": 316,
      "Ġproject": 317,
      "hang": 318,
      "it": 319,
      "ĠA": 320,
      "Ġex": 321,
      "and": 322,
      "Ġsmall": 323,
      "Ġbe": 324,
      "ce": 325,
      "iz": 326,
      "ion": 327,
      "Ġtraining": 328,
      "Ġexp": 329,
      "ken": 330,
      "pt": 331,
      "Ġd": 332,
      "Ġtoken": 333,
      "Ġuser": 334,
      "ase": 335,
      "es": 336,
      "ow": 337,
      "ts": 338,
      "ĠC": 339,
      "Ġn": 340,
      "Ġand": 341,
      "Ġse": 342,
      "imp": 343,
      "Ġdat": 344,
      "la": 345,
      "oc": 346,
      "pa": 347,
      "ri": 348,
      "rn": 349,
      "ru": 350,
      "si": 351,
      "ut": 352,
      "Ġo": 353,
      "Ġw": 354,
      "Ġen": 355,
      "Ġtin": 356,
      "Ġst": 357,
      "Ġcon": 358,
      "Ġchang": 359,
      "Ġal": 360,
      "Ġlea": 361,
      "out": 362,
      "Ġint": 363,
      "Ġmay": 364,
      "Ġdatase": 365,
      "Ġtiny": 366,
      "Ġchange": 367,
      "Ġlearn": 368,
      "em": 369,
      "me": 370,
      "ĠS": 371,
      "Ġh": 372,
      "Ġv": 373,
      "Ġea": 374,
      "Ġout": 375,
      "rom": 376,
      "Ġfi": 377,
      "Ġfrom": 378,
      "hanging": 379,
      "ize": 380,
      "ĠChanging": 381,
      "ocal": 382,
      "sier": 383,
      "Ġdataset": 384,
      "Ġeasier": 385,
      "Ġoutp": 386,
      "GP": 387,
      "User": 388,
      "ar": 389,
      "ck": 390,
      "cou": 391,
      "cri": 392,
      "der": 393,
      "ged": 394,
      "his": 395,
      "ig": 396,
      "ly": 397,
      "ot": 398,
      "ome": 399,
      "so": 400,
      "th": 401,
      "ter": 402,
      "tion": 403,
      "ĠI": 404,
      "Ġg": 405,
      "Ġre": 406,
      "Ġon": 407,
      "Ġimp": 408,
      "Ġru": 409,
      "ĠGP": 410,
      "ĠUser": 411,
      "erim": 412,
      "Ġsize": 413,
      "Ġscri": 414,
      "Ġare": 415,
      "Ġpre": 416,
      "ĠThis": 417,
      "raged": 418,
      "ation": 419,
      "Ġmak": 420,
      "Ġexperim": 421,
      "Ġnot": 422,
      "Ġsee": 423,
      "Ġof": 424,
      "Ġencou": 425,
      "Ġalso": 426,
      "Ġinto": 427,
      "Ġfile": 428,
      "Ġoutput": 429,
      "Ġrun": 430,
      "ĠUsers": 431,
      "Ġscript": 432,
      "Ġexperimen": 433,
      "Ġencouraged": 434,
      "Local": 435,
      "ble": 436,
      "ds": 437,
      "ep": 438,
      "ff": 439,
      "fu": 440,
      "ge": 441,
      "gth": 442,
      "hat": 443,
      "nder": 444,
      "tan": 445,
      "ui": 446,
      "ve": 447,
      "ĠLocal": 448,
      "ength": 449,
      "Ġpat": 450,
      "Ġpla": 451,
      "ration": 452,
      "ctu": 453,
      "Ġlar": 454,
      "Ġlength": 455,
      "ected": 456,
      "Ġfor": 457,
      "Ġtrained": 458,
      "Ġunder": 459,
      "Ġinf": 460,
      "ortan": 461,
      "stand": 462,
      "Ġbec": 463,
      "izer": 464,
      "Ġexpected": 465,
      "Ġtokens": 466,
      "Ġtokenizer": 467,
      "imple": 468,
      "pare": 469,
      "Ġlearning": 470,
      "Ġhow": 471,
      "tern": 472,
      "Ġimportan": 473,
      "ĠGPT": 474,
      "Ġmakes": 475,
      "ful": 476,
      "Ġpattern": 477,
      "Ġunderstand": 478,
      "Ġimportant": 479,
      "Ds": 480,
      "ay": 481,
      "ads": 482,
      "di": 483,
      "du": 484,
      "ding": 485,
      "ew": 486,
      "est": 487,
      "fy": 488,
      "fig": 489,
      "gh": 490,
      "ger": 491,
      "ible": 492,
      "lp": 493,
      "lit": 494,
      "low": 495,
      "mpt": 496,
      "ol": 497,
      "oal": 498,
      "ose": 499,
      "pe": 500,
      "plit": 501,
      "qui": 502,
      "ss": 503,
      "tt": 504,
      "tim": 505,
      "text": 506,
      "tation": 507,
      "uc": 508,
      "uration": 509,
      "vi": 510,
      "ver": 511,
      "yle": 512,
      "yst": 513,
      "Ġk": 514,
      "Ġhe": 515,
      "Ġde": 516,
      "Ġed": 517,
      "Ġit": 518,
      "Ġqui": 519,
      "Ġthat": 520,
      "Ġtest": 521,
      "ind": 522,
      "eren": 523,
      "erat": 524,
      "Ġsplit": 525,
      "Ġsyst": 526,
      "Ġco": 527,
      "Ġmem": 528,
      "Ġaff": 529,
      "enerat": 530,
      "ĠTrain": 531,
      "isible": 532,
      "ron": 533,
      "ings": 534,
      "Ġmore": 535,
      "Ġmodi": 536,
      "Ġlo": 537,
      "Ġlocal": 538,
      "Ġfa": 539,
      "Ġbut": 540,
      "Ġproce": 541,
      "Ġprompt": 542,
      "ough": 543,
      "seful": 544,
      "Ġuseful": 545,
      "ork": 546,
      "ith": 547,
      "ĠAI": 548,
      "Ġbeh": 549,
      "Ġusers": 550,
      "Ġsett": 551,
      "ructu": 552,
      "Ġwork": 553,
      "Ġwith": 554,
      "Ġconfig": 555,
      "Ġcontext": 556,
      "Ġinten": 557,
      "ĠSome": 558,
      "ĠSimple": 559,
      "Ġvisible": 560,
      "ckly": 561,
      "ĠIDs": 562,
      "Ġgoal": 563,
      "Ġgenerat": 564,
      "Ġone": 565,
      "Ġprepare": 566,
      "Ġexperiments": 567,
      "Ġexperimentation": 568,
      "eps": 569,
      "Ġplace": 570,
      "Ġlarge": 571,
      "Ġinferen": 572,
      "Ġbecome": 573,
      "Ġpatterns": 574,
      "duce": 575,
      "times": 576,
      "Ġhelp": 577,
      "Ġquickly": 578,
      "Ġsystem": 579,
      "Ġmemor": 580,
      "Ġaffect": 581,
      "ĠTrainer": 582,
      "Ġmodify": 583,
      "Ġprocess": 584,
      "Ġsettings": 585,
      "ructure": 586,
      "Ġconfiguration": 587,
      "ĠSometimes": 588,
      "Ġinference": 589,
      "DA": 590,
      "Man": 591,
      "PU": 592,
      "Simple": 593,
      "UDA": 594,
      "ab": 595,
      "ai": 596,
      "ak": 597,
      "ap": 598,
      "au": 599,
      "ara": 600,
      "apa": 601,
      "age": 602,
      "avi": 603,
      "ber": 604,
      "bed": 605,
      "bser": 606,
      "che": 607,
      "cre": 608,
      "cit": 609,
      "eed": 610,
      "eeps": 611,
      "fect": 612,
      "for": 613,
      "fit": 614,
      "flow": 615,
      "gn": 616,
      "gu": 617,
      "gpt": 618,
      "gly": 619,
      "ht": 620,
      "hu": 621,
      "how": 622,
      "hose": 623,
      "ir": 624,
      "ide": 625,
      "ive": 626,
      "iding": 627,
      "iew": 628,
      "ipe": 629,
      "ks": 630,
      "lo": 631,
      "lin": 632,
      "lig": 633,
      "lds": 634,
      "mer": 635,
      "men": 636,
      "mpare": 637,
      "mber": 638,
      "nt": 639,
      "nal": 640,
      "nst": 641,
      "nks": 642,
      "op": 643,
      "ox": 644,
      "off": 645,
      "pen": 646,
      "pect": 647,
      "ry": 648,
      "ran": 649,
      "sfor": 650,
      "spect": 651,
      "tit": 652,
      "us": 653,
      "ual": 654,
      "uts": 655,
      "ula": 656,
      "uri": 657,
      "umber": 658,
      "vai": 659,
      "way": 660,
      "xed": 661,
      "Ġan": 662,
      "Ġem": 663,
      "ĠMan": 664,
      "Ġide": 665,
      "Ġtra": 666,
      "Ġtim": 667,
      "Ġtea": 668,
      "Ġthan": 669,
      "Ġthose": 670,
      "Ġtran": 671,
      "hen": 672,
      "heck": 673,
      "ers": 674,
      "ery": 675,
      "erful": 676,
      "erfect": 677,
      "angu": 678,
      "Ġsig": 679,
      "Ġslow": 680,
      "Ġshow": 681,
      "Ġslig": 682,
      "Ġcre": 683,
      "Ġcou": 684,
      "Ġcapa": 685,
      "Ġchu": 686,
      "Ġcuri": 687,
      "Ġcheck": 688,
      "Ġmen": 689,
      "Ġmuc": 690,
      "Ġas": 691,
      "Ġat": 692,
      "Ġavai": 693,
      "Ġthen": 694,
      "Ġthese": 695,
      "Ġpow": 696,
      "Ġpara": 697,
      "Ġpipe": 698,
      "Ġperfect": 699,
      "rast": 700,
      "ists": 701,
      "Ġtool": 702,
      "rove": 703,
      "reak": 704,
      "ction": 705,
      "ĠThey": 706,
      "ate": 707,
      "atus": 708,
      "ded": 709,
      "deoff": 710,
      "onger": 711,
      "Ġmost": 712,
      "Ġlay": 713,
      "Ġlangu": 714,
      "Ġlonger": 715,
      "Ġfri": 716,
      "Ġfol": 717,
      "Ġbla": 718,
      "Ġbui": 719,
      "Ġbox": 720,
      "Ġbreak": 721,
      "Ġproduce": 722,
      "Ġtrains": 723,
      "Ġmodels": 724,
      "ous": 725,
      "sets": 726,
      "ead": 727,
      "Ġincre": 728,
      "Ġinspect": 729,
      "ster": 730,
      "style": 731,
      "ally": 732,
      "Ġmain": 733,
      "iting": 734,
      "Ġexists": 735,
      "Ġbeing": 736,
      "cept": 737,
      "ization": 738,
      "Ġexpose": 739,
      "Ġexplo": 740,
      "Ġdo": 741,
      "ĠCPU": 742,
      "ĠCUDA": 743,
      "Ġnew": 744,
      "Ġneed": 745,
      "Ġnumber": 746,
      "Ġsees": 747,
      "Ġdata": 748,
      "lable": 749,
      "ocab": 750,
      "paration": 751,
      "pair": 752,
      "sign": 753,
      "Ġover": 754,
      "Ġobser": 755,
      "Ġwhat": 756,
      "Ġwhen": 757,
      "Ġenvi": 758,
      "Ġenough": 759,
      "Ġstar": 760,
      "Ġstyle": 761,
      "Ġstron": 762,
      "Ġsteps": 763,
      "Ġstructure": 764,
      "Ġstatus": 765,
      "Ġconver": 766,
      "Ġconcept": 767,
      "Ġalth": 768,
      "Ġalway": 769,
      "Ġdatasets": 770,
      "Ġlearns": 771,
      "meter": 772,
      "ĠSmall": 773,
      "Ġhap": 774,
      "Ġhiding": 775,
      "Ġview": 776,
      "Ġvery": 777,
      "Ġvocab": 778,
      "Ġfixed": 779,
      "Ġoutputs": 780,
      "tionally": 781,
      "ĠIt": 782,
      "ĠInst": 783,
      "Ġreads": 784,
      "Ġrepe": 785,
      "Ġreduce": 786,
      "Ġrepair": 787,
      "Ġimprove": 788,
      "ĠGPU": 789,
      "Ġpresets": 790,
      "Ġpreparation": 791,
      "ational": 792,
      "Ġmake": 793,
      "eper": 794,
      "Ġplain": 795,
      "ctual": 796,
      "Ġlarger": 797,
      "Ġinfrast": 798,
      "Ġbecau": 799,
      "ucational": 800,
      "Ġkind": 801,
      "Ġkeeps": 802,
      "Ġdesign": 803,
      "Ġdeeper": 804,
      "Ġediting": 805,
      "Ġeducational": 806,
      "Ġtests": 807,
      "Ġsplits": 808,
      "Ġcode": 809,
      "Ġcompare": 810,
      "ronmen": 811,
      "Ġloads": 812,
      "Ġloop": 813,
      "Ġfaster": 814,
      "Ġfactual": 815,
      "Ġprompts": 816,
      "Ġbehind": 817,
      "Ġbehavi": 818,
      "Ġworking": 819,
      "Ġworkflow": 820,
      "Ġwithout": 821,
      "Ġintended": 822,
      "Ġintentionally": 823,
      "Ġgenerated": 824,
      "Ġgenerates": 825,
      "Ġprepared": 826,
      "Ġmemorize": 827,
      "Ġmemorization": 828,
      "bedding": 829,
      "ches": 830,
      "city": 831,
      "htly": 832,
      "line": 833,
      "pens": 834,
      "sformer": 835,
      "titive": 836,
      "ulary": 837,
      "Ġembedding": 838,
      "ĠManual": 839,
      "Ġidea": 840,
      "Ġtradeoff": 841,
      "Ġtime": 842,
      "Ġteaches": 843,
      "Ġtransformer": 844,
      "Ġsignal": 845,
      "Ġslightly": 846,
      "Ġcreate": 847,
      "Ġcount": 848,
      "Ġcapacity": 849,
      "Ġchunks": 850,
      "Ġcurious": 851,
      "Ġmenu": 852,
      "Ġmuch": 853,
      "Ġavailable": 854,
      "Ġpowerful": 855,
      "Ġparameter": 856,
      "Ġpipeline": 857,
      "Ġlayers": 858,
      "Ġlanguage": 859,
      "Ġfriction": 860,
      "Ġfolder": 861,
      "Ġblack": 862,
      "Ġbuilds": 863,
      "Ġincrease": 864,
      "Ġexposes": 865,
      "Ġexplore": 866,
      "Ġoverfit": 867,
      "Ġobserve": 868,
      "Ġenvironmen": 869,
      "Ġstart": 870,
      "Ġstrongly": 871,
      "Ġconverts": 872,
      "Ġalthough": 873,
      "Ġalways": 874,
      "Ġhappens": 875,
      "Ġvocabulary": 876,
      "ĠInstead": 877,
      "Ġrepetitive": 878,
      "Ġinfrastructure": 879,
      "Ġbecause": 880,
      "Ġdesigned": 881,
      "Ġbehavior": 882,
      "Ġtradeoffs": 883,
      "Ġenvironment": 884
    },
    "merges": [
      [
        "Ġ",
        "t"
      ],
      [
        "i",
        "n"
      ],
      [
        "h",
        "e"
      ],
      [
        "e",
        "r"
      ],
      [
        "a",
        "n"
      ],
      [
        "Ġ",
        "s"
      ],
      [
        "Ġ",
        "c"
      ],
      [
        "Ġ",
        "m"
      ],
      [
        "Ġ",
        "a"
      ],
      [
        "Ġt",
        "he"
      ],
      [
        "e",
        "n"
      ],
      [
        "Ġ",
        "p"
      ],
      [
        "Ġ",
        "T"
      ],
      [
        "r",
        "a"
      ],
      [
        "i",
        "s"
      ],
      [
        "Ġt",
        "o"
      ],
      [
        "e",
        "x"
      ],
      [
        "r",
        "o"
      ],
      [
        "in",
        "g"
      ],
      [
        "a",
        "l"
      ],
      [
        "r",
        "e"
      ],
      [
        "c",
        "t"
      ],
      [
        "ĠT",
        "he"
      ],
      [
        "a",
        "t"
      ],
      [
        "d",
        "e"
      ],
      [
        "o",
        "n"
      ],
      [
        "Ġm",
        "o"
      ],
      [
        "Ġ",
        "l"
      ],
      [
        "Ġ",
        "is"
      ],
      [
        "e",
        "ct"
      ],
      [
        "Ġc",
        "an"
      ],
      [
        "e",
        "d"
      ],
      [
        "Ġ",
        "f"
      ],
      [
        "ra",
        "in"
      ],
      [
        "Ġ",
        "b"
      ],
      [
        "Ġp",
        "ro"
      ],
      [
        "Ġt",
        "rain"
      ],
      [
        "de",
        "l"
      ],
      [
        "Ġmo",
        "del"
      ],
      [
        "i",
        "m"
      ],
      [
        "o",
        "u"
      ],
      [
        "s",
        "e"
      ],
      [
        "ex",
        "t"
      ],
      [
        "e",
        "a"
      ],
      [
        "s",
        "er"
      ],
      [
        "Ġ",
        "u"
      ],
      [
        "Ġ",
        "in"
      ],
      [
        "h",
        "an"
      ],
      [
        "l",
        "e"
      ],
      [
        "o",
        "r"
      ],
      [
        "s",
        "t"
      ],
      [
        "Ġt",
        "ext"
      ],
      [
        "al",
        "l"
      ],
      [
        "j",
        "ect"
      ],
      [
        "m",
        "all"
      ],
      [
        "Ġm",
        "a"
      ],
      [
        "Ġpro",
        "ject"
      ],
      [
        "han",
        "g"
      ],
      [
        "i",
        "t"
      ],
      [
        "Ġ",
        "A"
      ],
      [
        "Ġ",
        "ex"
      ],
      [
        "an",
        "d"
      ],
      [
        "Ġs",
        "mall"
      ],
      [
        "Ġb",
        "e"
      ],
      [
        "c",
        "e"
      ],
      [
        "i",
        "z"
      ],
      [
        "i",
        "on"
      ],
      [
        "Ġtrain",
        "ing"
      ],
      [
        "Ġex",
        "p"
      ],
      [
        "k",
        "en"
      ],
      [
        "p",
        "t"
      ],
      [
        "Ġ",
        "d"
      ],
      [
        "Ġto",
        "ken"
      ],
      [
        "Ġu",
        "ser"
      ],
      [
        "a",
        "se"
      ],
      [
        "e",
        "s"
      ],
      [
        "o",
        "w"
      ],
      [
        "t",
        "s"
      ],
      [
        "Ġ",
        "C"
      ],
      [
        "Ġ",
        "n"
      ],
      [
        "Ġ",
        "and"
      ],
      [
        "Ġs",
        "e"
      ],
      [
        "im",
        "p"
      ],
      [
        "Ġd",
        "at"
      ],
      [
        "l",
        "a"
      ],
      [
        "o",
        "c"
      ],
      [
        "p",
        "a"
      ],
      [
        "r",
        "i"
      ],
      [
        "r",
        "n"
      ],
      [
        "r",
        "u"
      ],
      [
        "s",
        "i"
      ],
      [
        "u",
        "t"
      ],
      [
        "Ġ",
        "o"
      ],
      [
        "Ġ",
        "w"
      ],
      [
        "Ġ",
        "en"
      ],
      [
        "Ġt",
        "in"
      ],
      [
        "Ġs",
        "t"
      ],
      [
        "Ġc",
        "on"
      ],
      [
        "Ġc",
        "hang"
      ],
      [
        "Ġa",
        "l"
      ],
      [
        "Ġl",
        "ea"
      ],
      [
        "ou",
        "t"
      ],
      [
        "Ġin",
        "t"
      ],
      [
        "Ġma",
        "y"
      ],
      [
        "Ġdat",
        "ase"
      ],
      [
        "Ġtin",
        "y"
      ],
      [
        "Ġchang",
        "e"
      ],
      [
        "Ġlea",
        "rn"
      ],
      [
        "e",
        "m"
      ],
      [
        "m",
        "e"
      ],
      [
        "Ġ",
        "S"
      ],
      [
        "Ġ",
        "h"
      ],
      [
        "Ġ",
        "v"
      ],
      [
        "Ġ",
        "ea"
      ],
      [
        "Ġ",
        "out"
      ],
      [
        "ro",
        "m"
      ],
      [
        "Ġf",
        "i"
      ],
      [
        "Ġf",
        "rom"
      ],
      [
        "hang",
        "ing"
      ],
      [
        "iz",
        "e"
      ],
      [
        "ĠC",
        "hanging"
      ],
      [
        "oc",
        "al"
      ],
      [
        "si",
        "er"
      ],
      [
        "Ġdatase",
        "t"
      ],
      [
        "Ġea",
        "sier"
      ],
      [
        "Ġout",
        "p"
      ],
      [
        "G",
        "P"
      ],
      [
        "U",
        "ser"
      ],
      [
        "a",
        "r"
      ],
      [
        "c",
        "k"
      ],
      [
        "c",
        "ou"
      ],
      [
        "c",
        "ri"
      ],
      [
        "d",
        "er"
      ],
      [
        "g",
        "ed"
      ],
      [
        "h",
        "is"
      ],
      [
        "i",
        "g"
      ],
      [
        "l",
        "y"
      ],
      [
        "o",
        "t"
      ],
      [
        "o",
        "me"
      ],
      [
        "s",
        "o"
      ],
      [
        "t",
        "h"
      ],
      [
        "t",
        "er"
      ],
      [
        "t",
        "ion"
      ],
      [
        "Ġ",
        "I"
      ],
      [
        "Ġ",
        "g"
      ],
      [
        "Ġ",
        "re"
      ],
      [
        "Ġ",
        "on"
      ],
      [
        "Ġ",
        "imp"
      ],
      [
        "Ġ",
        "ru"
      ],
      [
        "Ġ",
        "GP"
      ],
      [
        "Ġ",
        "User"
      ],
      [
        "er",
        "im"
      ],
      [
        "Ġs",
        "ize"
      ],
      [
        "Ġs",
        "cri"
      ],
      [
        "Ġa",
        "re"
      ],
      [
        "Ġp",
        "re"
      ],
      [
        "ĠT",
        "his"
      ],
      [
        "ra",
        "ged"
      ],
      [
        "at",
        "ion"
      ],
      [
        "Ġma",
        "k"
      ],
      [
        "Ġexp",
        "erim"
      ],
      [
        "Ġn",
        "ot"
      ],
      [
        "Ġse",
        "e"
      ],
      [
        "Ġo",
        "f"
      ],
      [
        "Ġen",
        "cou"
      ],
      [
        "Ġal",
        "so"
      ],
      [
        "Ġint",
        "o"
      ],
      [
        "Ġfi",
        "le"
      ],
      [
        "Ġoutp",
        "ut"
      ],
      [
        "Ġru",
        "n"
      ],
      [
        "ĠUser",
        "s"
      ],
      [
        "Ġscri",
        "pt"
      ],
      [
        "Ġexperim",
        "en"
      ],
      [
        "Ġencou",
        "raged"
      ],
      [
        "L",
        "ocal"
      ],
      [
        "b",
        "le"
      ],
      [
        "d",
        "s"
      ],
      [
        "e",
        "p"
      ],
      [
        "f",
        "f"
      ],
      [
        "f",
        "u"
      ],
      [
        "g",
        "e"
      ],
      [
        "g",
        "th"
      ],
      [
        "h",
        "at"
      ],
      [
        "n",
        "der"
      ],
      [
        "t",
        "an"
      ],
      [
        "u",
        "i"
      ],
      [
        "v",
        "e"
      ],
      [
        "Ġ",
        "Local"
      ],
      [
        "en",
        "gth"
      ],
      [
        "Ġp",
        "at"
      ],
      [
        "Ġp",
        "la"
      ],
      [
        "ra",
        "tion"
      ],
      [
        "ct",
        "u"
      ],
      [
        "Ġl",
        "ar"
      ],
      [
        "Ġl",
        "ength"
      ],
      [
        "ect",
        "ed"
      ],
      [
        "Ġf",
        "or"
      ],
      [
        "Ġtrain",
        "ed"
      ],
      [
        "Ġu",
        "nder"
      ],
      [
        "Ġin",
        "f"
      ],
      [
        "or",
        "tan"
      ],
      [
        "st",
        "and"
      ],
      [
        "Ġbe",
        "c"
      ],
      [
        "iz",
        "er"
      ],
      [
        "Ġexp",
        "ected"
      ],
      [
        "Ġtoken",
        "s"
      ],
      [
        "Ġtoken",
        "izer"
      ],
      [
        "imp",
        "le"
      ],
      [
        "pa",
        "re"
      ],
      [
        "Ġlearn",
        "ing"
      ],
      [
        "Ġh",
        "ow"
      ],
      [
        "ter",
        "n"
      ],
      [
        "Ġimp",
        "ortan"
      ],
      [
        "ĠGP",
        "T"
      ],
      [
        "Ġmak",
        "es"
      ],
      [
        "fu",
        "l"
      ],
      [
        "Ġpat",
        "tern"
      ],
      [
        "Ġunder",
        "stand"
      ],
      [
        "Ġimportan",
        "t"
      ],
      [
        "D",
        "s"
      ],
      [
        "a",
        "y"
      ],
      [
        "a",
        "ds"
      ],
      [
        "d",
        "i"
      ],
      [
        "d",
        "u"
      ],
      [
        "d",
        "ing"
      ],
      [
        "e",
        "w"
      ],
      [
        "e",
        "st"
      ],
      [
        "f",
        "y"
      ],
      [
        "f",
        "ig"
      ],
      [
        "g",
        "h"
      ],
      [
        "g",
        "er"
      ],
      [
        "i",
        "ble"
      ],
      [
        "l",
        "p"
      ],
      [
        "l",
        "it"
      ],
      [
        "l",
        "ow"
      ],
      [
        "m",
        "pt"
      ],
      [
        "o",
        "l"
      ],
      [
        "o",
        "al"
      ],
      [
        "o",
        "se"
      ],
      [
        "p",
        "e"
      ],
      [
        "p",
        "lit"
      ],
      [
        "q",
        "ui"
      ],
      [
        "s",
        "s"
      ],
      [
        "t",
        "t"
      ],
      [
        "t",
        "im"
      ],
      [
        "t",
        "ext"
      ],
      [
        "t",
        "ation"
      ],
      [
        "u",
        "c"
      ],
      [
        "u",
        "ration"
      ],
      [
        "v",
        "i"
      ],
      [
        "v",
        "er"
      ],
      [
        "y",
        "le"
      ],
      [
        "y",
        "st"
      ],
      [
        "Ġ",
        "k"
      ],
      [
        "Ġ",
        "he"
      ],
      [
        "Ġ",
        "de"
      ],
      [
        "Ġ",
        "ed"
      ],
      [
        "Ġ",
        "it"
      ],
      [
        "Ġ",
        "qui"
      ],
      [
        "Ġt",
        "hat"
      ],
      [
        "Ġt",
        "est"
      ],
      [
        "in",
        "d"
      ],
      [
        "er",
        "en"
      ],
      [
        "er",
        "at"
      ],
      [
        "Ġs",
        "plit"
      ],
      [
        "Ġs",
        "yst"
      ],
      [
        "Ġc",
        "o"
      ],
      [
        "Ġm",
        "em"
      ],
      [
        "Ġa",
        "ff"
      ],
      [
        "en",
        "erat"
      ],
      [
        "ĠT",
        "rain"
      ],
      [
        "is",
        "ible"
      ],
      [
        "ro",
        "n"
      ],
      [
        "ing",
        "s"
      ],
      [
        "Ġmo",
        "re"
      ],
      [
        "Ġmo",
        "di"
      ],
      [
        "Ġl",
        "o"
      ],
      [
        "Ġl",
        "ocal"
      ],
      [
        "Ġf",
        "a"
      ],
      [
        "Ġb",
        "ut"
      ],
      [
        "Ġpro",
        "ce"
      ],
      [
        "Ġpro",
        "mpt"
      ],
      [
        "ou",
        "gh"
      ],
      [
        "se",
        "ful"
      ],
      [
        "Ġu",
        "seful"
      ],
      [
        "or",
        "k"
      ],
      [
        "it",
        "h"
      ],
      [
        "ĠA",
        "I"
      ],
      [
        "Ġbe",
        "h"
      ],
      [
        "Ġuser",
        "s"
      ],
      [
        "Ġse",
        "tt"
      ],
      [
        "ru",
        "ctu"
      ],
      [
        "Ġw",
        "ork"
      ],
      [
        "Ġw",
        "ith"
      ],
      [
        "Ġcon",
        "fig"
      ],
      [
        "Ġcon",
        "text"
      ],
      [
        "Ġint",
        "en"
      ],
      [
        "ĠS",
        "ome"
      ],
      [
        "ĠS",
        "imple"
      ],
      [
        "Ġv",
        "isible"
      ],
      [
        "ck",
        "ly"
      ],
      [
        "ĠI",
        "Ds"
      ],
      [
        "Ġg",
        "oal"
      ],
      [
        "Ġg",
        "enerat"
      ],
      [
        "Ġon",
        "e"
      ],
      [
        "Ġpre",
        "pare"
      ],
      [
        "Ġexperimen",
        "ts"
      ],
      [
        "Ġexperimen",
        "tation"
      ],
      [
        "ep",
        "s"
      ],
      [
        "Ġpla",
        "ce"
      ],
      [
        "Ġlar",
        "ge"
      ],
      [
        "Ġinf",
        "eren"
      ],
      [
        "Ġbec",
        "ome"
      ],
      [
        "Ġpattern",
        "s"
      ],
      [
        "du",
        "ce"
      ],
      [
        "tim",
        "es"
      ],
      [
        "Ġhe",
        "lp"
      ],
      [
        "Ġqui",
        "ckly"
      ],
      [
        "Ġsyst",
        "em"
      ],
      [
        "Ġmem",
        "or"
      ],
      [
        "Ġaff",
        "ect"
      ],
      [
        "ĠTrain",
        "er"
      ],
      [
        "Ġmodi",
        "fy"
      ],
      [
        "Ġproce",
        "ss"
      ],
      [
        "Ġsett",
        "ings"
      ],
      [
        "ructu",
        "re"
      ],
      [
        "Ġconfig",
        "uration"
      ],
      [
        "ĠSome",
        "times"
      ],
      [
        "Ġinferen",
        "ce"
      ],
      [
        "D",
        "A"
      ],
      [
        "M",
        "an"
      ],
      [
        "P",
        "U"
      ],
      [
        "S",
        "imple"
      ],
      [
        "U",
        "DA"
      ],
      [
        "a",
        "b"
      ],
      [
        "a",
        "i"
      ],
      [
        "a",
        "k"
      ],
      [
        "a",
        "p"
      ],
      [
        "a",
        "u"
      ],
      [
        "a",
        "ra"
      ],
      [
        "a",
        "pa"
      ],
      [
        "a",
        "ge"
      ],
      [
        "a",
        "vi"
      ],
      [
        "b",
        "er"
      ],
      [
        "b",
        "ed"
      ],
      [
        "b",
        "ser"
      ],
      [
        "c",
        "he"
      ],
      [
        "c",
        "re"
      ],
      [
        "c",
        "it"
      ],
      [
        "e",
        "ed"
      ],
      [
        "e",
        "eps"
      ],
      [
        "f",
        "ect"
      ],
      [
        "f",
        "or"
      ],
      [
        "f",
        "it"
      ],
      [
        "f",
        "low"
      ],
      [
        "g",
        "n"
      ],
      [
        "g",
        "u"
      ],
      [
        "g",
        "pt"
      ],
      [
        "g",
        "ly"
      ],
      [
        "h",
        "t"
      ],
      [
        "h",
        "u"
      ],
      [
        "h",
        "ow"
      ],
      [
        "h",
        "ose"
      ],
      [
        "i",
        "r"
      ],
      [
        "i",
        "de"
      ],
      [
        "i",
        "ve"
      ],
      [
        "i",
        "ding"
      ],
      [
        "i",
        "ew"
      ],
      [
        "i",
        "pe"
      ],
      [
        "k",
        "s"
      ],
      [
        "l",
        "o"
      ],
      [
        "l",
        "in"
      ],
      [
        "l",
        "ig"
      ],
      [
        "l",
        "ds"
      ],
      [
        "m",
        "er"
      ],
      [
        "m",
        "en"
      ],
      [
        "m",
        "pare"
      ],
      [
        "m",
        "ber"
      ],
      [
        "n",
        "t"
      ],
      [
        "n",
        "al"
      ],
      [
        "n",
        "st"
      ],
      [
        "n",
        "ks"
      ],
      [
        "o",
        "p"
      ],
      [
        "o",
        "x"
      ],
      [
        "o",
        "ff"
      ],
      [
        "p",
        "en"
      ],
      [
        "p",
        "ect"
      ],
      [
        "r",
        "y"
      ],
      [
        "r",
        "an"
      ],
      [
        "s",
        "for"
      ],
      [
        "s",
        "pect"
      ],
      [
        "t",
        "it"
      ],
      [
        "u",
        "s"
      ],
      [
        "u",
        "al"
      ],
      [
        "u",
        "ts"
      ],
      [
        "u",
        "la"
      ],
      [
        "u",
        "ri"
      ],
      [
        "u",
        "mber"
      ],
      [
        "v",
        "ai"
      ],
      [
        "w",
        "ay"
      ],
      [
        "x",
        "ed"
      ],
      [
        "Ġ",
        "an"
      ],
      [
        "Ġ",
        "em"
      ],
      [
        "Ġ",
        "Man"
      ],
      [
        "Ġ",
        "ide"
      ],
      [
        "Ġt",
        "ra"
      ],
      [
        "Ġt",
        "im"
      ],
      [
        "Ġt",
        "ea"
      ],
      [
        "Ġt",
        "han"
      ],
      [
        "Ġt",
        "hose"
      ],
      [
        "Ġt",
        "ran"
      ],
      [
        "he",
        "n"
      ],
      [
        "he",
        "ck"
      ],
      [
        "er",
        "s"
      ],
      [
        "er",
        "y"
      ],
      [
        "er",
        "ful"
      ],
      [
        "er",
        "fect"
      ],
      [
        "an",
        "gu"
      ],
      [
        "Ġs",
        "ig"
      ],
      [
        "Ġs",
        "low"
      ],
      [
        "Ġs",
        "how"
      ],
      [
        "Ġs",
        "lig"
      ],
      [
        "Ġc",
        "re"
      ],
      [
        "Ġc",
        "ou"
      ],
      [
        "Ġc",
        "apa"
      ],
      [
        "Ġc",
        "hu"
      ],
      [
        "Ġc",
        "uri"
      ],
      [
        "Ġc",
        "heck"
      ],
      [
        "Ġm",
        "en"
      ],
      [
        "Ġm",
        "uc"
      ],
      [
        "Ġa",
        "s"
      ],
      [
        "Ġa",
        "t"
      ],
      [
        "Ġa",
        "vai"
      ],
      [
        "Ġthe",
        "n"
      ],
      [
        "Ġthe",
        "se"
      ],
      [
        "Ġp",
        "ow"
      ],
      [
        "Ġp",
        "ara"
      ],
      [
        "Ġp",
        "ipe"
      ],
      [
        "Ġp",
        "erfect"
      ],
      [
        "ra",
        "st"
      ],
      [
        "is",
        "ts"
      ],
      [
        "Ġto",
        "ol"
      ],
      [
        "ro",
        "ve"
      ],
      [
        "re",
        "ak"
      ],
      [
        "ct",
        "ion"
      ],
      [
        "ĠThe",
        "y"
      ],
      [
        "at",
        "e"
      ],
      [
        "at",
        "us"
      ],
      [
        "de",
        "d"
      ],
      [
        "de",
        "off"
      ],
      [
        "on",
        "ger"
      ],
      [
        "Ġmo",
        "st"
      ],
      [
        "Ġl",
        "ay"
      ],
      [
        "Ġl",
        "angu"
      ],
      [
        "Ġl",
        "onger"
      ],
      [
        "Ġf",
        "ri"
      ],
      [
        "Ġf",
        "ol"
      ],
      [
        "Ġb",
        "la"
      ],
      [
        "Ġb",
        "ui"
      ],
      [
        "Ġb",
        "ox"
      ],
      [
        "Ġb",
        "reak"
      ],
      [
        "Ġpro",
        "duce"
      ],
      [
        "Ġtrain",
        "s"
      ],
      [
        "Ġmodel",
        "s"
      ],
      [
        "ou",
        "s"
      ],
      [
        "se",
        "ts"
      ],
      [
        "ea",
        "d"
      ],
      [
        "Ġin",
        "cre"
      ],
      [
        "Ġin",
        "spect"
      ],
      [
        "st",
        "er"
      ],
      [
        "st",
        "yle"
      ],
      [
        "all",
        "y"
      ],
      [
        "Ġma",
        "in"
      ],
      [
        "it",
        "ing"
      ],
      [
        "Ġex",
        "ists"
      ],
      [
        "Ġbe",
        "ing"
      ],
      [
        "ce",
        "pt"
      ],
      [
        "iz",
        "ation"
      ],
      [
        "Ġexp",
        "ose"
      ],
      [
        "Ġexp",
        "lo"
      ],
      [
        "Ġd",
        "o"
      ],
      [
        "ĠC",
        "PU"
      ],
      [
        "ĠC",
        "UDA"
      ],
      [
        "Ġn",
        "ew"
      ],
      [
        "Ġn",
        "eed"
      ],
      [
        "Ġn",
        "umber"
      ],
      [
        "Ġse",
        "es"
      ],
      [
        "Ġdat",
        "a"
      ],
      [
        "la",
        "ble"
      ],
      [
        "oc",
        "ab"
      ],
      [
        "pa",
        "ration"
      ],
      [
        "pa",
        "ir"
      ],
      [
        "si",
        "gn"
      ],
      [
        "Ġo",
        "ver"
      ],
      [
        "Ġo",
        "bser"
      ],
      [
        "Ġw",
        "hat"
      ],
      [
        "Ġw",
        "hen"
      ],
      [
        "Ġen",
        "vi"
      ],
      [
        "Ġen",
        "ough"
      ],
      [
        "Ġst",
        "ar"
      ],
      [
        "Ġst",
        "yle"
      ],
      [
        "Ġst",
        "ron"
      ],
      [
        "Ġst",
        "eps"
      ],
      [
        "Ġst",
        "ructure"
      ],
      [
        "Ġst",
        "atus"
      ],
      [
        "Ġcon",
        "ver"
      ],
      [
        "Ġcon",
        "cept"
      ],
      [
        "Ġal",
        "th"
      ],
      [
        "Ġal",
        "way"
      ],
      [
        "Ġdatase",
        "ts"
      ],
      [
        "Ġlearn",
        "s"
      ],
      [
        "me",
        "ter"
      ],
      [
        "ĠS",
        "mall"
      ],
      [
        "Ġh",
        "ap"
      ],
      [
        "Ġh",
        "iding"
      ],
      [
        "Ġv",
        "iew"
      ],
      [
        "Ġv",
        "ery"
      ],
      [
        "Ġv",
        "ocab"
      ],
      [
        "Ġfi",
        "xed"
      ],
      [
        "Ġoutp",
        "uts"
      ],
      [
        "tion",
        "ally"
      ],
      [
        "ĠI",
        "t"
      ],
      [
        "ĠI",
        "nst"
      ],
      [
        "Ġre",
        "ads"
      ],
      [
        "Ġre",
        "pe"
      ],
      [
        "Ġre",
        "duce"
      ],
      [
        "Ġre",
        "pair"
      ],
      [
        "Ġimp",
        "rove"
      ],
      [
        "ĠGP",
        "U"
      ],
      [
        "Ġpre",
        "sets"
      ],
      [
        "Ġpre",
        "paration"
      ],
      [
        "ation",
        "al"
      ],
      [
        "Ġmak",
        "e"
      ],
      [
        "ep",
        "er"
      ],
      [
        "Ġpla",
        "in"
      ],
      [
        "ctu",
        "al"
      ],
      [
        "Ġlar",
        "ger"
      ],
      [
        "Ġinf",
        "rast"
      ],
      [
        "Ġbec",
        "au"
      ],
      [
        "uc",
        "ational"
      ],
      [
        "Ġk",
        "ind"
      ],
      [
        "Ġk",
        "eeps"
      ],
      [
        "Ġde",
        "sign"
      ],
      [
        "Ġde",
        "eper"
      ],
      [
        "Ġed",
        "iting"
      ],
      [
        "Ġed",
        "ucational"
      ],
      [
        "Ġtest",
        "s"
      ],
      [
        "Ġsplit",
        "s"
      ],
      [
        "Ġco",
        "de"
      ],
      [
        "Ġco",
        "mpare"
      ],
      [
        "ron",
        "men"
      ],
      [
        "Ġlo",
        "ads"
      ],
      [
        "Ġlo",
        "op"
      ],
      [
        "Ġfa",
        "ster"
      ],
      [
        "Ġfa",
        "ctual"
      ],
      [
        "Ġprompt",
        "s"
      ],
      [
        "Ġbeh",
        "ind"
      ],
      [
        "Ġbeh",
        "avi"
      ],
      [
        "Ġwork",
        "ing"
      ],
      [
        "Ġwork",
        "flow"
      ],
      [
        "Ġwith",
        "out"
      ],
      [
        "Ġinten",
        "ded"
      ],
      [
        "Ġinten",
        "tionally"
      ],
      [
        "Ġgenerat",
        "ed"
      ],
      [
        "Ġgenerat",
        "es"
      ],
      [
        "Ġprepare",
        "d"
      ],
      [
        "Ġmemor",
        "ize"
      ],
      [
        "Ġmemor",
        "ization"
      ],
      [
        "bed",
        "ding"
      ],
      [
        "che",
        "s"
      ],
      [
        "cit",
        "y"
      ],
      [
        "ht",
        "ly"
      ],
      [
        "lin",
        "e"
      ],
      [
        "pen",
        "s"
      ],
      [
        "sfor",
        "mer"
      ],
      [
        "tit",
        "ive"
      ],
      [
        "ula",
        "ry"
      ],
      [
        "Ġem",
        "bedding"
      ],
      [
        "ĠMan",
        "ual"
      ],
      [
        "Ġide",
        "a"
      ],
      [
        "Ġtra",
        "deoff"
      ],
      [
        "Ġtim",
        "e"
      ],
      [
        "Ġtea",
        "ches"
      ],
      [
        "Ġtran",
        "sformer"
      ],
      [
        "Ġsig",
        "nal"
      ],
      [
        "Ġslig",
        "htly"
      ],
      [
        "Ġcre",
        "ate"
      ],
      [
        "Ġcou",
        "nt"
      ],
      [
        "Ġcapa",
        "city"
      ],
      [
        "Ġchu",
        "nks"
      ],
      [
        "Ġcuri",
        "ous"
      ],
      [
        "Ġmen",
        "u"
      ],
      [
        "Ġmuc",
        "h"
      ],
      [
        "Ġavai",
        "lable"
      ],
      [
        "Ġpow",
        "erful"
      ],
      [
        "Ġpara",
        "meter"
      ],
      [
        "Ġpipe",
        "line"
      ],
      [
        "Ġlay",
        "ers"
      ],
      [
        "Ġlangu",
        "age"
      ],
      [
        "Ġfri",
        "ction"
      ],
      [
        "Ġfol",
        "der"
      ],
      [
        "Ġbla",
        "ck"
      ],
      [
        "Ġbui",
        "lds"
      ],
      [
        "Ġincre",
        "ase"
      ],
      [
        "Ġexpose",
        "s"
      ],
      [
        "Ġexplo",
        "re"
      ],
      [
        "Ġover",
        "fit"
      ],
      [
        "Ġobser",
        "ve"
      ],
      [
        "Ġenvi",
        "ronmen"
      ],
      [
        "Ġstar",
        "t"
      ],
      [
        "Ġstron",
        "gly"
      ],
      [
        "Ġconver",
        "ts"
      ],
      [
        "Ġalth",
        "ough"
      ],
      [
        "Ġalway",
        "s"
      ],
      [
        "Ġhap",
        "pens"
      ],
      [
        "Ġvocab",
        "ulary"
      ],
      [
        "ĠInst",
        "ead"
      ],
      [
        "Ġrepe",
        "titive"
      ],
      [
        "Ġinfrast",
        "ructure"
      ],
      [
        "Ġbecau",
        "se"
      ],
      [
        "Ġdesign",
        "ed"
      ],
      [
        "Ġbehavi",
        "or"
      ],
      [
        "Ġtradeoff",
        "s"
      ],
      [
        "Ġenvironmen",
        "t"
      ]
    ]
  }
}