{"<s>":0,"<pad>":1,"</s>":2,"<unk>":3,"<mask>":4,"!":5,"\"":6,"#":7,"$":8,"%":9,"&":10,"'":11,"(":12,")":13,"*":14,"+":15,",":16,"-":17,".":18,"/":19,"0":20,"1":21,"2":22,"3":23,"4":24,"5":25,"6":26,"7":27,"8":28,"9":29,":":30,";":31,"<":32,"=":33,">":34,"?":35,"@":36,"A":37,"B":38,"C":39,"D":40,"E":41,"F":42,"G":43,"H":44,"I":45,"J":46,"K":47,"L":48,"M":49,"N":50,"O":51,"P":52,"Q":53,"R":54,"S":55,"T":56,"U":57,"V":58,"W":59,"X":60,"Y":61,"Z":62,"[":63,"\\":64,"]":65,"^":66,"_":67,"`":68,"a":69,"b":70,"c":71,"d":72,"e":73,"f":74,"g":75,"h":76,"i":77,"j":78,"k":79,"l":80,"m":81,"n":82,"o":83,"p":84,"q":85,"r":86,"s":87,"t":88,"u":89,"v":90,"w":91,"x":92,"y":93,"z":94,"{":95,"|":96,"}":97,"~":98,"¡":99,"¢":100,"£":101,"¤":102,"¥":103,"¦":104,"§":105,"¨":106,"©":107,"ª":108,"«":109,"¬":110,"®":111,"¯":112,"°":113,"±":114,"²":115,"³":116,"´":117,"µ":118,"¶":119,"·":120,"¸":121,"¹":122,"º":123,"»":124,"¼":125,"½":126,"¾":127,"¿":128,"À":129,"Á":130,"Â":131,"Ã":132,"Ä":133,"Å":134,"Æ":135,"Ç":136,"È":137,"É":138,"Ê":139,"Ë":140,"Ì":141,"Í":142,"Î":143,"Ï":144,"Ð":145,"Ñ":146,"Ò":147,"Ó":148,"Ô":149,"Õ":150,"Ö":151,"×":152,"Ø":153,"Ù":154,"Ú":155,"Û":156,"Ü":157,"Ý":158,"Þ":159,"ß":160,"à":161,"á":162,"â":163,"ã":164,"ä":165,"å":166,"æ":167,"ç":168,"è":169,"é":170,"ê":171,"ë":172,"ì":173,"í":174,"î":175,"ï":176,"ð":177,"ñ":178,"ò":179,"ó":180,"ô":181,"õ":182,"ö":183,"÷":184,"ø":185,"ù":186,"ú":187,"û":188,"ü":189,"ý":190,"þ":191,"ÿ":192,"Ā":193,"ā":194,"Ă":195,"ă":196,"Ą":197,"ą":198,"Ć":199,"ć":200,"Ĉ":201,"ĉ":202,"Ċ":203,"ċ":204,"Č":205,"č":206,"Ď":207,"ď":208,"Đ":209,"đ":210,"Ē":211,"ē":212,"Ĕ":213,"ĕ":214,"Ė":215,"ė":216,"Ę":217,"ę":218,"Ě":219,"ě":220,"Ĝ":221,"ĝ":222,"Ğ":223,"ğ":224,"Ġ":225,"ġ":226,"Ģ":227,"ģ":228,"Ĥ":229,"ĥ":230,"Ħ":231,"ħ":232,"Ĩ":233,"ĩ":234,"Ī":235,"ī":236,"Ĭ":237,"ĭ":238,"Į":239,"į":240,"İ":241,"ı":242,"Ĳ":243,"ĳ":244,"Ĵ":245,"ĵ":246,"Ķ":247,"ķ":248,"ĸ":249,"Ĺ":250,"ĺ":251,"Ļ":252,"ļ":253,"Ľ":254,"ľ":255,"Ŀ":256,"ŀ":257,"Ł":258,"ł":259,"Ń":260,"Ä±":261,"ar":262,"Ã¼":263,"an":264,"er":265,"ÅŁ":266,"in":267,"Ġb":268,"Ä±n":269,"en":270,"il":271,"ir":272,"ÄŁ":273,"Ġk":274,"Ã§":275,"lar":276,"Ġd":277,"Ġy":278,"Ġs":279,"ak":280,"al":281,"Ã¶":282,"Ġv":283,"Ġo":284,"el":285,"Ġg":286,"Ġt":287,"Ġve":288,"ay":289,"ek":290,"as":291,"et":292,"da":293,"ler":294,"ik":295,"Ä±r":296,"un":297,"Ä±l":298,"de":299,"em":300,"es":301,"am":302,"at":303,"on":304,"aÅŁ":305,"is":306,"Ġbir":307,"ul":308,"ur":309,"ĠB":310,"iy":311,"im":312,"Ã¼r":313,"ĠA":314,"ad":315,"iÅŁ":316,"Ġol":317,"Ġh":318,"Ġm":319,"Ã¼n":320,"Ġ1":321,"Ä±ÅŁ":322,"ĠÃ§":323,"ol":324,"ed":325,"ĠK":326,"ĠM":327,"Ġil":328,"ĠT":329,"or":330,"az":331,"Ä±nda":332,"lÄ±":333,"ey":334,"Ã¶n":335,"it":336,"le":337,"Ä±m":338,"ĠS":339,"ap":340,"ah":341,"dan":342,"Ġi":343,"larÄ±n":344,"li":345,"aÄŁ":346,"inde":347,"lan":348,"'d":349,"Ġde":350,"Ä°":351,"larÄ±":352,"Ġf":353,"iz":354,"Ã¼z":355,"Ġ19":356,"ĠD":357,"Ä±k":358,"di":359,"ĠÄ°":360,"Ã¶r":361,"Ġ\"":362,"du":363,"Ġp":364,"ab":365,"Ġal":366,"ini":367,"asÄ±":368,"ine":369,"ya":370,"um":371,"ĠH":372,"tir":373,"la":374,"larak":375,"Ġar":376,"dÄ±":377,"st":378,"Ã¼k":379,"ĠE":380,"Ġ2":381,"ĠiÃ§":382,"Ġtar":383,"oÄŁ":384,"uÅŁ":385,"af":386,"den":387,"ĠG":388,"ev":389,"Ġolarak":390,"esi":391,"ĠbaÅŁ":392,"Ġ(":393,"tÄ±r":394,"ĠyÄ±l":395,"ĠC":396,"Ä±s":397,"Ġson":398,"Ã¼l":399,"leri":400,"inin":401,"ĠÅŁ":402,"ĠF":403,"ti":404,"Ã¼rk":405,"ok":406,"om":407,"Ġyap":408,"ĠÃ¶":409,"iler":410,"Ã¼m":411,"ez":412,"Ġile":413,"miÅŁ":414,"ĠÃ":415,"ma":416,"eÅŁ":417,"mÄ±ÅŁ":418,"Ġbu":419,"ÄŁi":420,"eler":421,"ÄŁÄ±":422,"dÄ±r":423,"Ä±ndan":424,"Ġn":425,"op":426,"Ġda":427,"ĠY":428,"ist":429,"lik":430,"ĠP":431,"eÃ§":432,"Ä±nÄ±":433,"lam":434,"Ġet":435,"ut":436,"Ġr":437,"Ġbil":438,"ĠgÃ¶r":439,"mak":440,"ĠTÃ¼rk":441,"uk":442,"iye":443,"aÃ§":444,"Ġan":445,"ce":446,"tÄ±":447,"Ġgel":448,"us":449,"ĠiÃ§in":450,"dir":451,"Ġed":452,"ĠO":453,"av":454,"Ġkar":455,"Ġolan":456,"aki":457,"00":458,"ĠBu":459,"Ä±na":460,"Ġkul":461,"Ġyer":462,"Ġor":463,"Ġkur":464,"ĠÃ¶n":465,"adÄ±":466,"ib":467,"Ã¼y":468,"Ġis":469,"ac":470,"Ġoldu":471,"Ġay":472,"Ġz":473,"ih":474,"Ġu":475,"ĠAn":476,"ekt":477,"ayÄ±":478,"len":479,"Ã¼ÅŁ":480,"isi":481,"ilm":482,"Ġen":483,"up":484,"ÄŁu":485,"Ġver":486,"tur":487,"lÄ±k":488,"Ġsonr":489,"Ġkullan":490,"os":491,"Ġin":492,"ca":493,"aya":494,"ĠdÃ¶n":495,"eki":496,"eb":497,"anÄ±":498,"lerin":499,"ĠL":500,"Ġbul":501,"Ġtaraf":502,"mÄ±ÅŁtÄ±r":503,"Ã¶l":504,"te":505,"lu":506,"asÄ±nda":507,"yla":508,"Ġtop":509,"ĠR":510,"masÄ±":511,"ta":512,"Ä±nÄ±n":513,"ĠsÃ¼r":514,"Ġik":515,"miÅŁtir":516,"ip":517,"Ä±z":518,"Ġc":519,"iÄŁ":520,"tad":521,"ken":522,"ĠdeÄŁ":523,"uÅŁtur":524,"leÅŁ":525,"ibi":526,"ĠÃ¼z":527,"Ġger":528,"let":529,"ĠyÄ±lÄ±nda":530,"aha":531,"ilir":532,"ĠÃ¼zer":533,"Ġsonra":534,"Ġkal":535,"ĠyÃ¶n":536,"ĠgÃ¶":537,"oj":538,"ĠdoÄŁ":539,"sel":540,"Ġkon":541,"Ġilk":542,"ĠTÃ¼rkiye":543,"ĠtarafÄ±ndan":544,"Ġgen":545,"Ġbulun":546,"man":547,"ec":548,"ilen":549,"ĠN":550,"Ġyaz":551,"Ä±lan":552,"unu":553,"Ġad":554,"Ġise":555,"iyle":556,"lem":557,"Ġgibi":558,"Ġtarih":559,"nin":560,"'t":561,"tadÄ±r":562,"eni":563,"Ã¼yÃ¼k":564,"daki":565,"Ġ20":566,"unda":567,"ĠÃĩ":568,"ĠÃ§Ä±k":569,"Ġolm":570,"oy":571,"Ã¢":572,"yon":573,"ĠÃ¶z":574,"laÅŁ":575,"ĠiÅŁ":576,"ic":577,"Ġel":578,"ĠgeÃ§":579,"Ġken":580,"iyet":581,"ro":582,"Åŀ":583,"edir":584,"Ã¼Ã§":585,"oloj":586,"ĠdÃ¶nem":587,"ayan":588,"akÄ±m":589,"art":590,"ĠaÃ§":591,"Ġdaha":592,"cak":593,"Ġbel":594,"uz":595,"ĠyaÅŁ":596,"Ġbilim":597,"ede":598,"ĠÅŀ":599,"ans":600,"ĠbÃ¼yÃ¼k":601,"ĠgÃ¼n":602,"ef":603,"ark":604,"Ġkad":605,"Ġoy":606,"ĠÃ§ok":607,"bol":608,"alÄ±ÅŁ":609,"deki":610,"maktadÄ±r":611,"ki":612,"Ã¼t":613,"ektedir":614,"eri":615,"iÅŁtir":616,"ĠsaÄŁ":617,"nÄ±n":618,"inden":619,"ildi":620,"ili":621,"ĠV":622,"alÄ±":623,"vr":624,"tan":625,"ĠÃ§alÄ±ÅŁ":626,"Ġ3":627,"oz":628,"Ġalan":629,"Ġyar":630,"eÄŁ":631,"erk":632,"aman":633,"eden":634,"ĠkarÅŁ":635,"ada":636,"ĠÃĸ":637,"ci":638,"eye":639,"lara":640,"met":641,"ot":642,"me":643,"Ã¼c":644,"ĠseÃ§":645,"ĠbÃ¶l":646,"Ġat":647,"larÄ±nda":648,"ĠyÃ¼z":649,"Ġtek":650,"ĠAr":651,"larda":652,"Ġtan":653,"iyon":654,"Ġes":655,"larÄ±nÄ±":656,"istem":657,"cÄ±":658,"ub":659,"arak":660,"ĠbaÄŁ":661,"Ã§e":662,"unun":663,"Ä±ldÄ±":664,"Ġyay":665,"Ġ200":666,"der":667,"Ġkat":668,"Ä±sÄ±":669,"Ġuy":670,"cu":671,"Ġvar":672,"ĠEr":673,"eh":674,"san":675,"Ġsah":676,"ĠBir":677,"gi":678,"Ä±lÄ±":679,"ĠÃ¶zel":680,"Ġyak":681,"aÄŁÄ±":682,"arÄ±":683,"ĠAy":684,"ĠtakÄ±m":685,"ĠsÄ±r":686,"ladÄ±":687,"mas":688,"rÄ±":689,"Ã¶y":690,"Ġek":691,"ĠÃ¶l":692,"anlÄ±":693,"Ġzaman":694,"ara":695,"ask":696,"ĠarasÄ±nda":697,"Ġort":698,"Ġon":699,"Ġkurul":700,"Ġkadar":701,"Ġkay":702,"Ġtem":703,"ĠÅŁek":704,"larÄ±nÄ±n":705,"evr":706,"Ã¼s":707,"amp":708,"Ã®":709,"azÄ±":710,"Ġdev":711,"hur":712,"lerini":713,"tÃ¼r":714,"ĠU":715,"gr":716,"nÄ±":717,"erek":718,"ade":719,"liÄŁi":720,"ster":721,"iÄŁer":722,"Ġsay":723,"etim":724,"umhur":725,"ĠgÃ¶re":726,"ĠÃ¶nem":727,"Ġiki":728,"Ġhal":729,"eng":730,"ĠMu":731,"iv":732,"lÃ¼":733,"ĠdÃ¼z":734,"ep":735,"ĠgÃ¶ster":736,"19":737,"Ã¶z":738,"Ġhar":739,"Ġbelir":740,"edi":741,"ĠÃ¼r":742,"ĠsayÄ±":743,"Ġetk":744,"eli":745,"stan":746,"ers":747,"ĠHan":748,"iÃ§":749,"Ġuz":750,"Ġyeni":751,"Ġalt":752,"bul":753,"Ġsistem":754,"Ġher":755,"por":756,"aÅŁk":757,"ÄŁr":758,"larÄ±na":759,"tr":760,"mektedir":761,"ĠI":762,"Ġveya":763,"Ä±ndaki":764,"ĠÄ°s":765,"enin":766,"ĠdÃ¼ÅŁ":767,"olu":768,"avaÅŁ":769,"ĠolduÄŁu":770,"),":771,"dÃ¼":772,"ĠZ":773,"esinde":774,"Ġkap":775,"Ġkaz":776,"Ġbirlik":777,"atik":778,"Ġfark":779,"urum":780,"Ġpro":781,"if":782,"ĠbaÅŁk":783,"stanbul":784,"mek":785,"Ġgenel":786,"ikt":787,"ĠÄ°stanbul":788,"ampiyon":789,"una":790,"Ġkab":791,"atÄ±":792,"eÅŁit":793,"ĠÄ°n":794,"Ġ201":795,"Ġ4":796,"asyon":797,"Ġinsan":798,"ĠdiÄŁer":799,"ĠÄ°l":800,"Ġden":801,"Ġgir":802,"Ã¼nya":803,"Ġul":804,"Ġkazan":805,"ama":806,"dÃ¼r":807,"Ġmil":808,"ĠoluÅŁ":809,"Ã§ek":810,"Ġsonu":811,"Ġhak":812,"lardan":813,"Ġ199":814,"\",":815,"ĠoluÅŁtur":816,"Ġsahip":817,"Ġyan":818,"emal":819,"Ġboy":820,"Ġpar":821,"Ġder":822,"onom":823,"ĠGÃ¼n":824,"ĠÃ¶nemli":825,"erb":826,"imi":827,"Ġtam":828,"ĠJ":829,"Ġak":830,"Ä±y":831,"Ġdil":832,"ĠAl":833,"maya":834,"yÄ±l":835,"lerinin":836,"bir":837,"Ġ198":838,"dÄ±ÄŁÄ±":839,"eleri":840,"ÄŁunu":841,"lere":842,"upa":843,"esine":844,"ĠÃ¶r":845,"Ġbirlikte":846,"ĠkiÅŁ":847,"Ġ18":848,"uy":849,"ter":850,"Ġa":851,"ĠgÃ¶rev":852,"ĠÃ¼l":853,"mesi":854,"ilmiÅŁtir":855,"han":856,"indeki":857,"erkez":858,"ĠOr":859,"Ġuyg":860,"uv":861,"ĠdÄ±ÅŁ":862,"Ġetti":863,"utbol":864,"abilir":865,"ĠyÃ¼zyÄ±l":866,"eor":867,"lerde":868,"Ġl":869,"Ã§ok":870,"ĠiÃ§er":871,"ĠÃľ":872,"Ä±ÅŁtÄ±r":873,"ĠgeliÅŁ":874,"ĠbÃ¶lg":875,"ĠtaÅŁ":876,"est":877,"eyen":878,"Ġtopl":879,"od":880,"ri":881,"men":882,"ne":883,"Ġhay":884,"ĠkullanÄ±l":885,"ĠKemal":886,"afa":887,"anÄ±n":888,"aÅŁtÄ±r":889,"ĠAvr":890,"Ã¼st":891,"Ä±lÄ±k":892,"atem":893,"ĠdeÄŁiÅŁ":894,"ĠÃ¼Ã§":895,"ĠtÃ¼r":896,"Ä±sÄ±r":897,"ye":898,"ĠgerÃ§ek":899,"re":900,"stafa":901,"Ġgr":902,"etir":903,"ĠAt":904,"ordu":905,"inci":906,"Ġhem":907,"ĠGen":908,"ĠÃ§eÅŁit":909,"leÅŁtir":910,"Ġtarihinde":911,"oloji":912,"rÄ±ca":913,"Ġ5":914,"Ġilg":915,"ĠÃ¶zellik":916,"Ġneden":917,"Ã¼p":918,"ĠMÄ±sÄ±r":919,"ĠMustafa":920,"esini":921,"ĠtanÄ±m":922,"eyi":923,"gan":924,"ĠkÄ±s":925,"Ġgelen":926,"ĠÃ§ek":927,"id":928,"asar":929,"liÄŁ":930,"ĠOs":931,"ĠÅŁekil":932,"larÄ±ndan":933,"Ġkabul":934,"Ã¼b":935,"ĠyÃ¼k":936,"acak":937,"ĠdÃ¼zen":938,"aret":939,"Ä±lÄ±m":940,"Ġgerek":941,"ĠbirÃ§ok":942,"luk":943,"ÄŁÄ±nÄ±":944,"Ġyol":945,"iyas":946,"oÄŁu":947,"Ġkend":948,"nde":949,"ilik":950,"Ġgetir":951,"engiz":952,"ece":953,"Ġayr":954,"lat":955,"tik":956,"ĠyapÄ±lan":957,"ĠKar":958,"Ġ197":959,"ĠdoÄŁr":960,"ĠtÃ¼m":961,"ĠaynÄ±":962,"nun":963,"sa":964,"Ã§a":965,"alÄ±k":966,"rak":967,"lerinde":968,"Ġ192":969,"ĠAvrupa":970,"ĠOsman":971,"ĠW":972,"Ġok":973,"orm":974,"sal":975,"ĠiliÅŁ":976,"ĠÃ¼zere":977,"ĠCumhur":978,"of":979,"ĠEk":980,"ĠCengiz":981,"Ġortaya":982,"ileri":983,"Ġ%":984,"Ġsan":985,"ĠfarklÄ±":986,"ĠÃ¼lk":987,"ĠkarÅŁÄ±":988,"Ġist":989,"ĠBeÅŁ":990,"tÄ±ÄŁÄ±":991,"nda":992,"Ġam":993,"Ġdurum":994,"ĠÅŁampiyon":995,"Ġ196":996,"ukuk":997,"rar":998,"Ã¼mÃ¼z":999,"cel":1000,"ika":1001,"ĠTem":1002,"Ġbilg":1003,"ĠbazÄ±":1004,"adolu":1005,"Ġfilm":1006,"ĠaÃ§Ä±k":1007,"Ġya":1008,"Ġteor":1009,"ĠFen":1010,"ĠAnadolu":1011,"ĠseÃ§im":1012,"yal":1013,"Ġyet":1014,"lama":1015,"ĠadÄ±":1016,"Ġolmak":1017,"ĠÃ¼zerine":1018,"diÄŁi":1019,"Ġkayn":1020,"lerine":1021,"ĠiÃ§inde":1022,"atematik":1023,"van":1024,"baÅŁk":1025,"ĠMan":1026,"ĠEn":1027,"ĠolmuÅŁtur":1028,"eg":1029,"alan":1030,"adan":1031,"iktaÅŁ":1032,"erbah":1033,"ĠiliÅŁk":1034,"Ġtut":1035,"Ġres":1036,"Ġ6":1037,"Ä±t":1038,"ĠOsmanlÄ±":1039,"kara":1040,"Ġev":1041,"Ã¼f":1042,"ĠÃ§Ä±kar":1043,"ĠsÃ¶z":1044,"Ã¼nÃ¼":1045,"ĠÃ§evr":1046,"ĠyaklaÅŁ":1047,"ĠBeÅŁiktaÅŁ":1048,"Ġas":1049,"duÄŁu":1050,"Ġtemel":1051,"Ġkez":1052,"Ġbiri":1053,"par":1054,"Ġit":1055,"ĠaraÅŁtÄ±r":1056,"ĠÃ§eÅŁitli":1057,"ĠgeliÅŁtir":1058,"ĠAnkara":1059,"ĠFenerbah":1060,"ilmiÅŁ":1061,"lanan":1062,"mÃ¼ÅŁ":1063,"raf":1064,"anlÄ±ÄŁÄ±":1065,"Ġ12":1066,"Ġanlam":1067,"Ġ-":1068,"atÃ¼rk":1069,"Ã¼ny":1070,"ob":1071,"Ã»":1072,"Ġmerkez":1073,"ĠÃ¶nce":1074,"ĠÃ§alÄ±ÅŁma":1075,"mer":1076,"na":1077,"Ġ193":1078,"sek":1079,"larla":1080,"Ġsor":1081,"lÄ±ÄŁÄ±":1082,"Ġbilin":1083,"Ġkit":1084,"lerden":1085,"ĠÅŁekilde":1086,"tem":1087,"Ä±lmÄ±ÅŁtÄ±r":1088,"ĠÃ¼st":1089,"ator":1090,"usu":1091,"og":1092,"Ġim":1093,"ĠeÄŁ":1094,"esinin":1095,"dur":1096,"Ġfutbol":1097,"Ġancak":1098,"landÄ±r":1099,"ĠÃ¶ÄŁr":1100,"Ġsez":1101,"Ä±lÄ±r":1102,"Ġuygul":1103,"Ġli":1104,"Ġ195":1105,"Ġoyn":1106,"se":1107,"eket":1108,"ĠolduÄŁunu":1109,"Ġkom":1110,"ĠhÃ¼k":1111,"ĠGal":1112,"ran":1113,"Ġask":1114,"iir":1115,"muÅŁtur":1116,"Ġben":1117,"ĠKr":1118,"ĠbaÅŁladÄ±":1119,"Ġdevlet":1120,"rans":1121,"Ġaz":1122,"ĠDev":1123,"Ġkendi":1124,"lerinden":1125,"Ä±nÄ±r":1126,"ĠAk":1127,"ĠgÃ¶z":1128,"ent":1129,"lardÄ±r":1130,"ĠAncak":1131,"ĠAtatÃ¼rk":1132,"ĠFenerbahÃ§e":1133,"izik":1134,"ĠÃ¼zerinde":1135,"ĠkÃ¶":1136,"ĠyaÅŁam":1137,"parator":1138,"inc":1139,"eÄŁin":1140,"ebilir":1141,"pr":1142,"uÃ§":1143,"ast":1144,"unan":1145,"ĠyÃ¶netim":1146,"Ġeski":1147,"ĠulaÅŁ":1148,"uh":1149,"Ã¼nde":1150,"Ġtoplum":1151,"Ġ7":1152,"ĠKur":1153,"izm":1154,"gil":1155,"ĠvardÄ±r":1156,"Ġsezon":1157,"ag":1158,"sÄ±z":1159,"lay":1160,"Ä±mÄ±":1161,"Ġekonom":1162,"dÄ±ndan":1163,"Ġspor":1164,"ĠhÃ¼c":1165,"Ġ191":1166,"ecek":1167,"dar":1168,"Ġeden":1169,"ĠDevlet":1170,"sik":1171,"ĠDÃ¼nya":1172,"000":1173,"gram":1174,"ĠdoÄŁru":1175,"ulu":1176,"Ãĸ":1177,"oc":1178,"asa":1179,"asÄ±na":1180,"ĠMil":1181,"uzey":1182,"ĠGÃ¼ney":1183,"cÃ¼":1184,"meye":1185,"ÄŁini":1186,"iyi":1187,"ĠTar":1188,"ĠSavaÅŁ":1189,"Ġiz":1190,"Ã¼ltÃ¼r":1191,"luÄŁu":1192,"gÃ¼n":1193,"Ġbin":1194,"ĠalÄ±n":1195,"ilerin":1196,"ilmesi":1197,"Ġkaynak":1198,"ĠeÅŁ":1199,"ĠÃ¼y":1200,"Ġsiyas":1201,"ĠKon":1202,"Ġfaz":1203,"Ġhareket":1204,"unca":1205,"ĠyapÄ±":1206,"Ġdevam":1207,"ĠBey":1208,"layan":1209,"Ġorgan":1210,"ĠAyrÄ±ca":1211,"ov":1212,"Ã¼Ã§Ã¼k":1213,"ĠÃĸz":1214,"aliyet":1215,"undan":1216,"Ġark":1217,"ĠaÅŁ":1218,"Ġkr":1219,"Ġdol":1220,"olojik":1221,"Ġbit":1222,"Ġtamam":1223,"acÄ±":1224,"Ä±lmasÄ±":1225,"ĠyayÄ±m":1226,"oÅŁ":1227,"ten":1228,"isinde":1229,"orum":1230,"ĠEs":1231,"ĠyÃ¶ntem":1232,"ley":1233,"lÃ¼k":1234,"Ġkarar":1235,"ĠaÄŁ":1236,"elik":1237,"Ġif":1238,"lendir":1239,"Ġincel":1240,"ĠyÃ¶net":1241,"ĠsÄ±nÄ±r":1242,"alk":1243,"Ġmatematik":1244,"ĠdÃ¼ÅŁÃ¼n":1245,"tu":1246,"Ġart":1247,"ĠgÃ¶rÃ¼l":1248,"Ã»met":1249,"ĠardÄ±ndan":1250,"lamÄ±ÅŁtÄ±r":1251,"ĠÃ¼n":1252,"Ġkes":1253,"Ġkonu":1254,"Ġmet":1255,"neÄŁin":1256,"arÄ±ÅŁ":1257,"ilim":1258,"oÄŁraf":1259,"istan":1260,"Ġ202":1261,"Ġhalk":1262,"Ġbulunan":1263,"ecl":1264,"ĠgeÃ§ir":1265,"Ġoyun":1266,"Ġuzun":1267,"ĠManÃ§":1268,"ÄŁÃ¼":1269,"ĠsÃ¶y":1270,"ĠmÃ¼z":1271,"Ã¼tÃ¼n":1272,"Ġmad":1273,"Ġ10":1274,"Ġfa":1275,"ĠLi":1276,"Ġboyunca":1277,"Ġtah":1278,"Ġer":1279,"ĠbiÃ§":1280,"Ä±lmÄ±ÅŁ":1281,"landÄ±":1282,"elerin":1283,"osyal":1284,"Ġtekn":1285,"masÄ±na":1286,"Ġasker":1287,"tar":1288,"tÃ¼":1289,"lerle":1290,"aÅŁa":1291,"ĠmaÃ§":1292,"Ġdal":1293,"ĠsavaÅŁ":1294,"esel":1295,"Ġzor":1296,"ĠyÃ¼ksek":1297,"Ġede":1298,"ĠdÃ¼ny":1299,"atasar":1300,"Ġilgili":1301,"atasaray":1302,"sil":1303,"Ġ9":1304,"Ġot":1305,"asÄ±ndaki":1306,"ĠaraÅŁtÄ±rma":1307,"Ġkim":1308,"Ġkol":1309,"ayar":1310,"ĠgÃ¶rÃ¼ÅŁ":1311,"ehir":1312,"ĠManÃ§o":1313,"doÄŁ":1314,"ĠadlÄ±":1315,"ĠÃ¼ret":1316,"muÅŁ":1317,"Ġhukuk":1318,"ĠyazÄ±lÄ±m":1319,"Ġprogram":1320,"mi":1321,"Ġkan":1322,"ĠÅŁiir":1323,"ĠFrans":1324,"likle":1325,"Ġdin":1326,"ĠsÄ±":1327,"Ã¼ne":1328,"ĠYunan":1329,"upasÄ±":1330,"ĠtakÄ±mÄ±":1331,"Ġbask":1332,"Ġpr":1333,"adÄ±ÄŁÄ±":1334,"Ġcumhur":1335,"ĠdeÄŁil":1336,"ĠZaz":1337,"Ġitib":1338,"ĠGalatasaray":1339,"Ġfazla":1340,"yi":1341,"ĠÄ°t":1342,"ivers":1343,"ĠÄ°ngil":1344,"end":1345,").":1346,"asÄ±nÄ±":1347,"lÄ±ÄŁ":1348,"ĠtarÄ±m":1349,"Ġeser":1350,"Ġ8":1351,"ĠbiÃ§im":1352,"iversit":1353,"si":1354,"aber":1355,"ĠnÃ¼f":1356,"Ġisim":1357,"Ġhakk":1358,"ĠgÃ¼Ã§":1359,"ĠFer":1360,"ĠCumhuriyet":1361,"ant":1362,"Ġseb":1363,"azÄ±r":1364,"Ġ194":1365,"tif":1366,"ĠbaÄŁlÄ±":1367,"Ġfaaliyet":1368,"Ã¶rt":1369,"Ġbas":1370,"Ġdiz":1371,"Ġ15":1372,"ĠaldÄ±":1373,"ĠdeÄŁer":1374,"ĠdeÄŁiÅŁtir":1375,"maz":1376,"Ã§i":1377,"Ġsal":1378,"esiyle":1379,"Ġtoprak":1380,"ĠRom":1381,"ĠdoÄŁal":1382,"ĠgÃ¼nÃ¼mÃ¼z":1383,"Ġem":1384,"Ä±p":1385,"Ä±cÄ±":1386,"iyat":1387,"masÄ±nÄ±":1388,"ilmektedir":1389,"ĠÃ¶ÄŁren":1390,"ĠkÃ¼Ã§Ã¼k":1391,"ĠdÃ¼nya":1392,"ĠAmer":1393,"ĠilÃ§":1394,"abil":1395,"lenen":1396,"ĠdÃ¶neminde":1397,"ost":1398,"Ã¶yle":1399,"Ġifade":1400,"ĠAs":1401,"ĠÄ°m":1402,"ĠPart":1403,"Ġser":1404,"ĠKul":1405,"ĠbaÅŁar":1406,"ĠdeÄŁiÅŁik":1407,"kÃ¼":1408,"Ġgrup":1409,"ĠeÄŁit":1410,"Ġsat":1411,"Ã¼mÃ¼":1412,"Ġelde":1413,"Ã¼v":1414,"ĠBunun":1415,"ĠhÃ¢":1416,"ĠPar":1417,"Ġtemsil":1418,"Ã¼sÃ¼":1419,"lin":1420,"vet":1421,"etik":1422,"Ġedilen":1423,"ge":1424,"ĠKupasÄ±":1425,"ĠÃĩin":1426,"ĠTarih":1427,"ĠkÃ¼m":1428,"Ã¼nÃ¼n":1429,"Ġ16":1430,"Ġkent":1431,"dÃ¼l":1432,"Ġkav":1433,"olit":1434,"ĠiÅŁlem":1435,"ĠSavaÅŁÄ±":1436,"pan":1437,"akat":1438,"ali":1439,"eme":1440,"tiÄŁi":1441,"ĠPaÅŁa":1442,"ĠGenel":1443,"gÃ¼r":1444,"elim":1445,"ĠDoÄŁu":1446,"lamak":1447,"ĠÄ°lk":1448,"lim":1449,"ĠgÃ¶n":1450,"Ġbirbir":1451,"ĠEy":1452,"ĠyakÄ±n":1453,"doÄŁan":1454,"yan":1455,"ayÄ±s":1456,"aba":1457,"ĠHar":1458,"oÄŁun":1459,"ket":1460,"lÃ¼l":1461,"ra":1462,"anan":1463,"anlÄ±k":1464,"Ġdayan":1465,"isinin":1466,"ĠolmasÄ±":1467,"Ġordu":1468,"ĠÃ¶nc":1469,"ĠbulunmaktadÄ±r":1470,"ĠsÄ±rasÄ±nda":1471,"gu":1472,"ĠdÃ¶nemde":1473,"ĠbaÅŁka":1474,"Ġbenz":1475,"Ġter":1476,"asÄ±m":1477,"ĠErdoÄŁan":1478,"ĠAli":1479,"Ä±nÄ±f":1480,"ĠÄ°mparator":1481,"ch":1482,"ĠkÃ¼ltÃ¼r":1483,"els":1484,"asÄ±nÄ±n":1485,"isini":1486,"Ġyeniden":1487,"Ġulus":1488,"ĠbÃ¼tÃ¼n":1489,"Ġolay":1490,"Ġ11":1491,"Ġfizik":1492,"Ä±zca":1493,"iÄŁin":1494,"Ġele":1495,"ni":1496,"eniz":1497,"etbol":1498,"ĠsÃ¼re":1499,"ĠgeniÅŁ":1500,"ĠEkim":1501,"Ġyen":1502,"Ġsu":1503,"Ġhat":1504,"ĠcumhurbaÅŁk":1505,"20":1506,"ram":1507,"siz":1508,"isine":1509,"Ġmod":1510,"mÃ¼ÅŁtÃ¼r":1511,"Ġorganiz":1512,"ux":1513,"Ã¼ler":1514,"Ġtic":1515,"ĠÃ§aÄŁ":1516,"avun":1517,"ĠÃ¶lÃ§":1518,"Ġyok":1519,"Ġmev":1520,"Ġtoplam":1521,"ĠyayÄ±n":1522,"gÄ±n":1523,"nek":1524,"siyon":1525,"ĠsÄ±nÄ±f":1526,"ĠhÄ±z":1527,"ĠMart":1528,"ĠMayÄ±s":1529,"adece":1530,"ĠÃľn":1531,"ĠhÃ¼kÃ»met":1532,"gel":1533,"Ġevr":1534,"Ã¶k":1535,"leriyle":1536,"Ġeder":1537,"Ġyerine":1538,"ĠsÄ±ra":1539,"ĠÅŁekl":1540,"elsef":1541,"ĠBaÅŁk":1542,"ĠyaptÄ±ÄŁÄ±":1543,"Ġhayvan":1544,"ĠHaz":1545,"ĠdÃ¶nÃ¼ÅŁ":1546,"Ġbun":1547,"ĠmÃ¼":1548,"Ġikinci":1549,"Ġsanat":1550,"ĠEylÃ¼l":1551,"meler":1552,"Ġduy":1553,"ĠBÃ¶l":1554,"ĠYÄ±l":1555,"ektr":1556,"Ġetkil":1557,"ofya":1558,"ĠhÃ¼cr":1559,"Ġedeb":1560,"arasÄ±":1561,"anÄ±ÅŁ":1562,"Ġbak":1563,"ĠyanÄ±":1564,"esinden":1565,"ĠAh":1566,"Ã¼nden":1567,"Ġform":1568,"Ġgeri":1569,"ĠsaÄŁlÄ±k":1570,"amak":1571,"ĠKom":1572,"Ġfelsef":1573,"oza":1574,"bak":1575,"dÄ±m":1576,"ĠhazÄ±r":1577,"ĠinÅŁ":1578,"Ġbilimsel":1579,"ledi":1580,"Ġdem":1581,"Ä±rak":1582,"larÄ±yla":1583,"oÄŁol":1584,"ĠkullanÄ±lan":1585,"ĠaltÄ±nda":1586,"NA":1587,"Ġbiy":1588,"Ġdest":1589,"ale":1590,"ĠKasÄ±m":1591,"ĠSon":1592,"Ġdepr":1593,"ĠarasÄ±ndaki":1594,"ĠVan":1595,"Ġzamanda":1596,"ĠOrta":1597,"ĠÃ¶zellikle":1598,"ĠgÃ¶nder":1599,"oder":1600,"Ġsosyal":1601,"lev":1602,"Ġedildi":1603,"Ġsonuc":1604,"ĠyÃ¼r":1605,"Ġsadece":1606,"lanmÄ±ÅŁtÄ±r":1607,"luÄŁ":1608,"ici":1609,"ĠErz":1610,"Ġonun":1611,"ĠdÄ±ÅŁÄ±nda":1612,"din":1613,"lerdir":1614,"iyor":1615,"Ġolup":1616,"ĠbÄ±rak":1617,"Ġkor":1618,"Ġgit":1619,"ula":1620,"ĠMoÄŁol":1621,"Ä±sÄ±nda":1622,"ĠRus":1623,"ĠkonuÅŁ":1624,"odern":1625,"aat":1626,"Ġiyi":1627,"Ġtur":1628,"ĠCh":1629,"ĠanlaÅŁ":1630,"usunda":1631,"ĠyerleÅŁ":1632,"ĠÃĸr":1633,"Ġdestek":1634,"inux":1635,"asofya":1636,"isayar":1637,"Ġ17":1638,"Ä±ÅŁÄ±":1639,"Ġdevr":1640,"ĠÅŀampiyon":1641,"Ġsistemi":1642,"med":1643,"ĠSpor":1644,"ĠyÄ±llarÄ±":1645,"Ġolduk":1646,"ĠÅŀub":1647,"ĠkarÅŁÄ±l":1648,"Ġtekrar":1649,"Ġharf":1650,"ĠKral":1651,"Ġbur":1652,"Ġmez":1653,"ĠOcak":1654,"ĠgÃ¼ney":1655,"ocuk":1656,"gen":1657,"leyen":1658,"Ġyas":1659,"Ġtes":1660,"Ġtab":1661,"uluk":1662,"ĠBaÅŁ":1663,"adel":1664,"ĠDer":1665,"rari":1666,"ĠLigi":1667,"ari":1668,"ĠkÄ±y":1669,"Ġkuzey":1670,"Ġsoy":1671,"Ġ13":1672,"Ġana":1673,"Ġbelirt":1674,"ĠgerÃ§ekleÅŁtir":1675,"Ġkitap":1676,"lÃ®":1677,"ÄŁÄ±nda":1678,"elen":1679,"iyordu":1680,"izmet":1681,"ĠalÄ±r":1682,"oÄŁlu":1683,"Ġverdi":1684,"Ġail":1685,".\"":1686,"iÄŁi":1687,"iran":1688,"Ġ14":1689,"ĠMÃĸ":1690,"ĠSan":1691,"ĠDaha":1692,"ĠÄ°k":1693,"aren":1694,"enk":1695,"ĠÃ§iz":1696,"Ä±klarÄ±":1697,"stos":1698,"Ġne":1699,"Ġnok":1700,"ĠsÃ¼rdÃ¼r":1701,"ĠAyasofya":1702,"Ġkaps":1703,"Ġsahiptir":1704,"ĠnÃ¼fus":1705,"Ġdeprem":1706,"lak":1707,"Ġber":1708,"Ġ190":1709,"ĠDem":1710,"Ġpart":1711,"ĠyaptÄ±":1712,"Ġedil":1713,"Ġkural":1714,"ĠPartisi":1715,"ver":1716,"Ġbey":1717,"lararasÄ±":1718,"deÅŁ":1719,"ĠAd":1720,"Ġpsik":1721,"ĠiÅŁlet":1722,"Ã¼cadel":1723,"ĠbÃ¶lÃ¼m":1724,"Ġmillet":1725,"Ġmilyon":1726,"Ġsonucu":1727,"ĠgerÃ§ekleÅŁ":1728,"Ġnedeniyle":1729,"ĠFerrari":1730,"muz":1731,"Ġses":1732,"ĠTan":1733,"ahk":1734,"dana":1735,"ĠbaÅŁken":1736,"lamÄ±ÅŁ":1737,"Ġedilir":1738,"ÄŁustos":1739,"Ġkalan":1740,"ĠÃ¶lÃ¼m":1741,"ĠyaklaÅŁÄ±k":1742,"kÄ±":1743,"net":1744,"Ġdah":1745,"ĠsÄ±k":1746,"olek":1747,"okr":1748,"ilere":1749,"ĠÄ°span":1750,"ĠeÄŁitim":1751,"ĠÃľniversit":1752,"det":1753,"gÄ±":1754,"mem":1755,"ĠBarÄ±ÅŁ":1756,"ĠAÄŁustos":1757,"Ġpolit":1758,"ĠraÄŁ":1759,"Ġgeldi":1760,"Ä±lÄ±ÄŁÄ±":1761,"ĠkiÅŁi":1762,"ĠkÄ±sm":1763,"ĠTemuÃ§":1764,"ĠÄ°ngiliz":1765,"ĠTemuÃ§in":1766,"ton":1767,"ing":1768,"irket":1769,"aln":1770,"ĠBel":1771,"Ġmey":1772,"Ä±ÅŁma":1773,"Ġih":1774,"Ġnes":1775,"ĠadlandÄ±r":1776,"ĠÃ¼retim":1777,"ĠoluÅŁan":1778,"Ġait":1779,"ĠyÃ¼zyÄ±lda":1780,"ĠAmerika":1781,"ĠHaziran":1782,"alar":1783,"hi":1784,"ĠBak":1785,"uvvet":1786,"ĠhiÃ§":1787,"ĠSel":1788,"las":1789,"Ġkm":1790,"ĠdaÄŁ":1791,"Ġsin":1792,"ĠoÄŁ":1793,"Ġhizmet":1794,"olog":1795,"ediye":1796,"eya":1797,"ĠsayÄ±lar":1798,"ĠsonuÃ§":1799,"ĠCumhurbaÅŁk":1800,"ĠTemmuz":1801,"tay":1802,"Ġ'":1803,"Ġe":1804,"ulan":1805,"Ġid":1806,"ĠyardÄ±m":1807,"Ġhayat":1808,"Ġsonucunda":1809,"\")":1810,"arp":1811,"Ġdik":1812,"ĠBur":1813,"Ġmoza":1814,"Ġpop":1815,"Ġdavr":1816,"ĠsÃ¼reÃ§":1817,"Ä±ldÄ±ÄŁÄ±":1818,"Ġsiyasi":1819,"Ġoyuncu":1820,"ĠraÄŁmen":1821,"kaÃ§":1822,"vek":1823,"Ġsun":1824,"Ġmak":1825,"ĠKan":1826,"ĠHer":1827,"ĠyapÄ±l":1828,"ĠetmiÅŁtir":1829,"Ġbulunur":1830,"Ġtarihi":1831,"ĠÃ§Ä±kan":1832,"ĠparÃ§":1833,"Ã¼ven":1834,"Ġberaber":1835,"fa":1836,"ard":1837,"Ġkelim":1838,"Ġsev":1839,"Ġgaz":1840,"lanÄ±r":1841,"Ġgelir":1842,"ĠBirleÅŁ":1843,"ĠMuh":1844,"ĠÃ¶rnek":1845,"Ġitibaren":1846,"ret":1847,"ĠdÃ¶rt":1848,"Ġolur":1849,"Ġmuh":1850,"ĠayrÄ±":1851,"ĠayrÄ±ca":1852,"ĠamacÄ±":1853,"ĠRoma":1854,"ĠÅŁeklinde":1855,"ber":1856,"may":1857,"Ġvur":1858,"abasÄ±":1859,"ĠYeni":1860,"aca":1861,"Ġkurulan":1862,"ĠÃ¼rÃ¼n":1863,"ĠkÄ±sa":1864,"Ġsezonunda":1865,"ĠEski":1866,"ĠaÄŁÄ±r":1867,"Ġmodel":1868,"ĠÅŀubat":1869,"18":1870,"Ġ(\"":1871,"ĠNis":1872,"Ġolmayan":1873,"ĠbaÄŁÄ±m":1874,"ĠyaygÄ±n":1875,"ĠUy":1876,"ĠgiriÅŁ":1877,"Ã§Ä±":1878,"ekli":1879,"ĠFir":1880,"ĠkulÃ¼p":1881,"mekt":1882,"mayÄ±":1883,"yÄ±":1884,"ind":1885,"iliÄŁ":1886,"Ġkoy":1887,"Ġyaln":1888,"alet":1889,"Ġgi":1890,"ĠBun":1891,"ĠBÃ¼yÃ¼k":1892,"Ã¼ncÃ¼":1893,"ĠSÃ¼r":1894,"ĠkadÄ±n":1895,"Ġgenellikle":1896,"Ġkomut":1897,"cut":1898,"he":1899,"su":1900,"erj":1901,"ĠBatÄ±":1902,"Ġpek":1903,"tiv":1904,"ilerini":1905,"elerde":1906,"ĠcoÄŁraf":1907,"Ġgrub":1908,"Ġmerkezi":1909,"gÃ¼t":1910,"mir":1911,"Ġada":1912,"amÄ±ÅŁ":1913,"Ġplan":1914,"ĠCez":1915,"Ä±sÄ±ndan":1916,"Ġyapan":1917,"Ġkurum":1918,"ĠuÄŁr":1919,"leme":1920,"ĠÃĩaÄŁ":1921,"ĠkuruluÅŁ":1922,"Ġbilgisayar":1923,"Ġbilinen":1924,"lus":1925,"akk":1926,"ĠDÃ¶n":1927,"ĠDoÄŁ":1928,"ĠbulunduÄŁu":1929,"ĠyazÄ±":1930,"ĠAralÄ±k":1931,"ĠhÃ¢l":1932,"Ġiddi":1933,"tin":1934,"arlar":1935,"ĠbeÅŁ":1936,"ĠkÄ±r":1937,"Ġmal":1938,"Ġarke":1939,"ĠÃĸrneÄŁin":1940,"Ġdahil":1941,"ĠNisan":1942,"ker":1943,"ud":1944,"Ġbes":1945,"Ġfin":1946,"ĠAynÄ±":1947,"ĠII":1948,"Ġlig":1949,"ince":1950,"etr":1951,"ĠmÃ¼cadel":1952,"ĠaraÃ§":1953,"ĠiÃ§erisinde":1954,"Ã¶ylece":1955,"ĠÄ°mparatorluÄŁu":1956,"Ġticaret":1957,"ke":1958,"ow":1959,"yum":1960,"Ġun":1961,"ĠBilim":1962,"Ġiler":1963,"ĠSiv":1964,"ĠGÃ¶l":1965,"ĠyarÄ±ÅŁ":1966,"ĠamaÃ§":1967,"Ġmevcut":1968,"cÄ±lÄ±k":1969,"ox":1970,"ikleri":1971,"ĠbirkaÃ§":1972,"ĠMecl":1973,"ĠFutbol":1974,"Ġtak":1975,"ĠTop":1976,"ĠDNA":1977,"ĠÅŁark":1978,"ĠÅŁirket":1979,"eÅŁtir":1980,"Ġrom":1981,"ĠedilmiÅŁtir":1982,"Ġenerj":1983,"ĠLinux":1984,"hangi":1985,"Ġhemen":1986,"Ġkavram":1987,"'s":1988,"mÃ®":1989,"ser":1990,"Ġerk":1991,"Ġkil":1992,"ĠkaÃ§":1993,"Ġkuvvet":1994,"asal":1995,"iyan":1996,"ĠÃ§Ã¶z":1997,"Ġtart":1998,"lendi":1999}